{"version": "1.0", "truncation": null, "padding": null, "added_tokens": [{"id": 0, "content": "<unk>", "single_word": false, "lstrip": false, "rstrip": false, "normalized": false, "special": true}, {"id": 1, "content": "<s>", "single_word": false, "lstrip": false, "rstrip": false, "normalized": false, "special": true}, {"id": 2, "content": "</s>", "single_word": false, "lstrip": false, "rstrip": false, "normalized": false, "special": true}], "normalizer": {"type": "Sequence", "normalizers": [{"type": "Prepend", "prepend": "▁"}, {"type": "Replace", "pattern": {"String": " "}, "content": "▁"}]}, "pre_tokenizer": null, "post_processor": {"type": "TemplateProcessing", "single": [{"SpecialToken": {"id": "<s>", "type_id": 0}}, {"Sequence": {"id": "A", "type_id": 0}}], "pair": [{"SpecialToken": {"id": "<s>", "type_id": 0}}, {"Sequence": {"id": "A", "type_id": 0}}, {"SpecialToken": {"id": "<s>", "type_id": 1}}, {"Sequence": {"id": "B", "type_id": 1}}], "special_tokens": {"<s>": {"id": "<s>", "ids": [1], "tokens": ["<s>"]}}}, "decoder": {"type": "Sequence", "decoders": [{"type": "Replace", "pattern": {"String": "▁"}, "content": " "}, {"type": "ByteFallback"}, {"type": "Fuse"}, {"type": "Strip", "content": " ", "start": 1, "stop": 0}]}, "model": {"type": "BPE", "dropout": null, "unk_token": "<unk>", "continuing_subword_prefix": null, "end_of_word_suffix": null, "fuse_unk": true, "byte_fallback": true, "ignore_merges": false, "vocab": {"<unk>": 0, "<s>": 1, "</s>": 2, "<0x00>": 3, "<0x01>": 4, "<0x02>": 5, "<0x03>": 6, "<0x04>": 7, "<0x05>": 8, "<0x06>": 9, "<0x07>": 10, "<0x08>": 11, "<0x09>": 12, "<0x0A>": 13, "<0x0B>": 14, "<0x0C>": 15, "<0x0D>": 16, "<0x0E>": 17, "<0x0F>": 18, "<0x10>": 19, "<0x11>": 20, "<0x12>": 21, "<0x13>": 22, "<0x14>": 23, "<0x15>": 24, "<0x16>": 25, "<0x17>": 26, "<0x18>": 27, "<0x19>": 28, "<0x1A>": 29, "<0x1B>": 30, "<0x1C>": 31, "<0x1D>": 32, "<0x1E>": 33, "<0x1F>": 34, "<0x20>": 35, "<0x21>": 36, "<0x22>": 37, "<0x23>": 38, "<0x24>": 39, "<0x25>": 40, "<0x26>": 41, "<0x27>": 42, "<0x28>": 43, "<0x29>": 44, "<0x2A>": 45, "<0x2B>": 46, "<0x2C>": 47, "<0x2D>": 48, "<0x2E>": 49, "<0x2F>": 50, "<0x30>": 51, "<0x31>": 52, "<0x32>": 53, "<0x33>": 54, "<0x34>": 55, "<0x35>": 56, "<0x36>": 57, "<0x37>": 58, "<0x38>": 59, "<0x39>": 60, "<0x3A>": 61, "<0x3B>": 62, "<0x3C>": 63, "<0x3D>": 64, "<0x3E>": 65, "<0x3F>": 66, "<0x40>": 67, "<0x41>": 68, "<0x42>": 69, "<0x43>": 70, "<0x44>": 71, "<0x45>": 72, "<0x46>": 73, "<0x47>": 74, "<0x48>": 75, "<0x49>": 76, "<0x4A>": 77, "<0x4B>": 78, "<0x4C>": 79, "<0x4D>": 80, "<0x4E>": 81, "<0x4F>": 82, "<0x50>": 83, "<0x51>": 84, "<0x52>": 85, "<0x53>": 86, "<0x54>": 87, "<0x55>": 88, "<0x56>": 89, "<0x57>": 90, "<0x58>": 91, "<0x59>": 92, "<0x5A>": 93, "<0x5B>": 94, "<0x5C>": 95, "<0x5D>": 96, "<0x5E>": 97, "<0x5F>": 98, "<0x60>": 99, "<0x61>": 100, "<0x62>": 101, "<0x63>": 102, "<0x64>": 103, "<0x65>": 104, "<0x66>": 105, "<0x67>": 106, "<0x68>": 107, "<0x69>": 108, "<0x6A>": 109, "<0x6B>": 110, "<0x6C>": 111, "<0x6D>": 112, "<0x6E>": 113, "<0x6F>": 114, "<0x70>": 115, "<0x71>": 116, "<0x72>": 117, "<0x73>": 118, "<0x74>": 119, "<0x75>": 120, "<0x76>": 121, "<0x77>": 122, "<0x78>": 123, "<0x79>": 124, "<0x7A>": 125, "<0x7B>": 126, "<0x7C>": 127, "<0x7D>": 128, "<0x7E>": 129, "<0x7F>": 130, "<0x80>": 131, "<0x81>": 132, "<0x82>": 133, "<0x83>": 134, "<0x84>": 135, "<0x85>": 136, "<0x86>": 137, "<0x87>": 138, "<0x88>": 139, "<0x89>": 140, "<0x8A>": 141, "<0x8B>": 142, "<0x8C>": 143, "<0x8D>": 144, "<0x8E>": 145, "<0x8F>": 146, "<0x90>": 147, "<0x91>": 148, "<0x92>": 149, "<0x93>": 150, "<0x94>": 151, "<0x95>": 152, "<0x96>": 153, "<0x97>": 154, "<0x98>": 155, "<0x99>": 156, "<0x9A>": 157, "<0x9B>": 158, "<0x9C>": 159, "<0x9D>": 160, "<0x9E>": 161, "<0x9F>": 162, "<0xA0>": 163, "<0xA1>": 164, "<0xA2>": 165, "<0xA3>": 166, "<0xA4>": 167, "<0xA5>": 168, "<0xA6>": 169, "<0xA7>": 170, "<0xA8>": 171, "<0xA9>": 172, "<0xAA>": 173, "<0xAB>": 174, "<0xAC>": 175, "<0xAD>": 176, "<0xAE>": 177, "<0xAF>": 178, "<0xB0>": 179, "<0xB1>": 180, "<0xB2>": 181, "<0xB3>": 182, "<0xB4>": 183, "<0xB5>": 184, "<0xB6>": 185, "<0xB7>": 186, "<0xB8>": 187, "<0xB9>": 188, "<0xBA>": 189, "<0xBB>": 190, "<0xBC>": 191, "<0xBD>": 192, "<0xBE>": 193, "<0xBF>": 194, "<0xC0>": 195, "<0xC1>": 196, "<0xC2>": 197, "<0xC3>": 198, "<0xC4>": 199, "<0xC5>": 200, "<0xC6>": 201, "<0xC7>": 202, "<0xC8>": 203, "<0xC9>": 204, "<0xCA>": 205, "<0xCB>": 206, "<0xCC>": 207, "<0xCD>": 208, "<0xCE>": 209, "<0xCF>": 210, "<0xD0>": 211, "<0xD1>": 212, "<0xD2>": 213, "<0xD3>": 214, "<0xD4>": 215, "<0xD5>": 216, "<0xD6>": 217, "<0xD7>": 218, "<0xD8>": 219, "<0xD9>": 220, "<0xDA>": 221, "<0xDB>": 222, "<0xDC>": 223, "<0xDD>": 224, "<0xDE>": 225, "<0xDF>": 226, "<0xE0>": 227, "<0xE1>": 228, "<0xE2>": 229, "<0xE3>": 230, "<0xE4>": 231, "<0xE5>": 232, "<0xE6>": 233, "<0xE7>": 234, "<0xE8>": 235, "<0xE9>": 236, "<0xEA>": 237, "<0xEB>": 238, "<0xEC>": 239, "<0xED>": 240, "<0xEE>": 241, "<0xEF>": 242, "<0xF0>": 243, "<0xF1>": 244, "<0xF2>": 245, "<0xF3>": 246, "<0xF4>": 247, "<0xF5>": 248, "<0xF6>": 249, "<0xF7>": 250, "<0xF8>": 251, "<0xF9>": 252, "<0xFA>": 253, "<0xFB>": 254, "<0xFC>": 255, "<0xFD>": 256, "<0xFE>": 257, "<0xFF>": 258, "▁ا": 259, "▁ال": 260, "▁م": 261, "▁و": 262, "▁ب": 263, "▁ل": 264, "▁ف": 265, "▁ع": 266, "▁ي": 267, "▁أ": 268, "ال": 269, "نا": 270, "▁ت": 271, "▁ك": 272, "▁ه": 273, "ان": 274, "▁في": 275, "لي": 276, "ها": 277, "لا": 278, "ين": 279, "▁من": 280, "▁الم": 281, "▁ح": 282, "ية": 283, "▁د": 284, "▁ن": 285, "وا": 286, "ما": 287, "▁ق": 288, "را": 289, "ول": 290, "لى": 291, "▁ما": 292, "▁س": 293, "▁إ": 294, "ني": 295, "▁ش": 296, "ير": 297, "له": 298, "▁ج": 299, "ري": 300, "ات": 301, "ون": 302, "ار": 303, "▁ان": 304, "دي": 305, "▁وال": 306, "▁على": 307, "ذا": 308, "▁أن": 309, "هم": 310, "▁اللي": 311, "ست": 312, "▁ر": 313, "▁خ": 314, "▁يع": 315, "▁عن": 316, "▁لا": 317, "▁مع": 318, "بي": 319, "▁ط": 320, "لم": 321, "ام": 322, "▁الأ": 323, "▁ص": 324, "رة": 325, "▁بي": 326, "▁الله": 327, "▁الت": 328, "اب": 329, "▁بال": 330, "▁الع": 331, "▁يعني": 332, "كن": 333, "▁الح": 334, "اي": 335, "عد": 336, "▁بت": 337, "▁كان": 338, "دا": 339, "▁الس": 340, "▁يا": 341, "ور": 342, "دة": 343, "ده": 344, "مل": 345, "قول": 346, "يه": 347, "يا": 348, "▁هو": 349, "▁وا": 350, "رب": 351, "وم": 352, "▁علي": 353, "▁مش": 354, "اج": 355, "كم": 356, "رف": 357, "▁ده": 358, "▁الش": 359, "لة": 360, "▁كل": 361, "▁هذا": 362, "اع": 363, "▁الف": 364, "قى": 365, "▁بس": 366, "▁هي": 367, "نت": 368, "▁الق": 369, "اء": 370, "لو": 371, "▁الج": 372, "قة": 373, "حد": 374, "▁ز": 375, "▁الن": 376, "▁انا": 377, "وف": 378, "▁الك": 379, "تي": 380, "▁دي": 381, "▁الب": 382, "▁الا": 383, "سم": 384, "لك": 385, "قي": 386, "يب": 387, "وي": 388, "رك": 389, "بع": 390, "كون": 391, "▁أو": 392, "▁انت": 393, "لت": 394, "▁لي": 395, "▁غ": 396, "ذه": 397, "قد": 398, "▁وب": 399, "يد": 400, "اد": 401, "رو": 402, "لام": 403, "من": 404, "▁وت": 405, "فس": 406, "▁أنا": 407, "حت": 408, "رج": 409, "عة": 410, "▁لل": 411, "▁الص": 412, "ود": 413, "▁تع": 414, "▁الد": 415, "كل": 416, "▁ولا": 417, "با": 418, "مي": 419, "كت": 420, "أن": 421, "قت": 422, "كر": 423, "ائ": 424, "صل": 425, "▁كده": 426, "▁وه": 427, "اني": 428, "مة": 429, "▁هنا": 430, "مر": 431, "في": 432, "بة": 433, "ناس": 434, "وج": 435, "▁عند": 436, "▁إن": 437, "▁قال": 438, "بر": 439, "▁ايه": 440, "▁إلى": 441, "▁الخ": 442, "▁الإ": 443, "▁هذه": 444, "سي": 445, "اف": 446, "تك": 447, "رض": 448, "ته": 449, "▁بعد": 450, "▁عش": 451, "▁فيه": 452, "اجة": 453, "مكن": 454, "▁ث": 455, "وع": 456, "▁له": 457, "▁وأ": 458, "لع": 459, "حة": 460, "▁وي": 461, "حنا": 462, "▁او": 463, "▁لو": 464, "▁وم": 465, "▁لك": 466, "▁بع": 467, "يف": 468, "▁الو": 469, "سا": 470, "▁وع": 471, "رح": 472, "بل": 473, "وق": 474, "خل": 475, "▁عليه": 476, "▁ول": 477, "▁جدا": 478, "بقى": 479, "▁شي": 480, "فت": 481, "▁نفس": 482, "لب": 483, "▁أي": 484, "خر": 485, "فع": 486, "▁مت": 487, "مان": 488, "▁يت": 489, "▁حاجة": 490, "بد": 491, "مد": 492, "▁اه": 493, "▁اي": 494, "▁لكن": 495, "▁الط": 496, "▁قد": 497, "يل": 498, "▁بن": 499, "وت": 500, "رات": 501, "نة": 502, "▁الذ": 503, "▁لما": 504, "كان": 505, "▁ذ": 506, "▁بقى": 507, "▁حت": 508, "مع": 509, "خد": 510, "اه": 511, "كي": 512, "صر": 513, "يرة": 514, "▁مح": 515, "بعا": 516, "الي": 517, "▁را": 518, "▁است": 519, "▁لم": 520, "▁وق": 521, "بت": 522, "▁مث": 523, "شي": 524, "▁تح": 525, "عم": 526, "▁كت": 527, "▁بين": 528, "جل": 529, "طة": 530, "▁ض": 531, "خت": 532, "▁وس": 533, "سة": 534, "رت": 535, "لف": 536, "وض": 537, "▁فيها": 538, "▁الناس": 539, "نس": 540, "▁عشان": 541, "▁واحد": 542, "▁لأن": 543, "حي": 544, "▁آ": 545, "▁حتى": 546, "▁طبعا": 547, "جي": 548, "▁بد": 549, "▁ات": 550, "▁عم": 551, "▁كانت": 552, "▁رب": 553, "عل": 554, "خص": 555, "▁زي": 556, "▁ون": 557, "زم": 558, "▁أنه": 559, "حب": 560, "▁تت": 561, "سب": 562, "رق": 563, "▁احنا": 564, "رد": 565, "يم": 566, "▁أنت": 567, "عمل": 568, "ارة": 569, "شت": 570, "▁تق": 571, "زي": 572, "رس": 573, "وب": 574, "▁يقول": 575, "عت": 576, "▁عاي": 577, "طي": 578, "وية": 579, "وة": 580, "لق": 581, "شوف": 582, "صة": 583, "▁غير": 584, "▁الي": 585, "▁يكون": 586, "عب": 587, "▁ممكن": 588, "مت": 589, "هر": 590, "الم": 591, "▁به": 592, "▁هت": 593, "▁با": 594, "مام": 595, "▁نا": 596, "▁كنت": 597, "▁بتاع": 598, "عي": 599, "▁طيب": 600, "▁بعض": 601, "▁اسم": 602, "▁مس": 603, "▁اب": 604, "▁وج": 605, "فا": 606, "وز": 607, "▁انه": 608, "ضي": 609, "▁الث": 610, "قل": 611, "▁التي": 612, "وس": 613, "▁وإ": 614, "▁الذي": 615, "بح": 616, "▁الآ": 617, "انية": 618, "▁أخ": 619, "▁إذا": 620, "▁نح": 621, "▁عايز": 622, "لية": 623, "▁هل": 624, "شر": 625, "الة": 626, "▁يوم": 627, "نين": 628, "▁وح": 629, "▁أك": 630, "مس": 631, "قا": 632, "▁مج": 633, "▁قبل": 634, "ثر": 635, "▁حد": 636, "▁سي": 637, "ورة": 638, "لات": 639, "فة": 640, "ولة": 641, "▁شيء": 642, "تها": 643, "▁يج": 644, "ند": 645, "▁والله": 646, "يات": 647, "غل": 648, "▁أم": 649, "▁بش": 650, "هد": 651, "وه": 652, "عرف": 653, "▁كب": 654, "فض": 655, "عا": 656, "▁وك": 657, "فر": 658, "▁المس": 659, "▁ولكن": 660, "▁فا": 661, "▁الر": 662, "قدر": 663, "▁فق": 664, "صد": 665, "▁الغ": 666, "▁يبقى": 667, "▁أب": 668, "▁مست": 669, "▁وما": 670, "زل": 671, "▁فت": 672, "▁أح": 673, "▁بل": 674, "غير": 675, "انت": 676, "نات": 677, "كرة": 678, "▁الز": 679, "▁لأ": 680, "▁لها": 681, "▁مثلا": 682, "▁خل": 683, "▁يح": 684, "امل": 685, "ضا": 686, "▁اليوم": 687, "ئي": 688, "▁بح": 689, "مات": 690, "▁t": 691, "▁ين": 692, "يني": 693, "▁شاء": 694, "وضوع": 695, "▁ذلك": 696, "ينة": 697, "▁مد": 698, "ولي": 699, "▁وفي": 700, "▁البي": 701, "زة": 702, "▁كيف": 703, "ريق": 704, "ديد": 705, "طلع": 706, "▁موج": 707, "ظر": 708, "جا": 709, "كا": 710, "كس": 711, "حدة": 712, "▁ست": 713, "▁المت": 714, "به": 715, "▁لازم": 716, "▁لان": 717, "▁قلت": 718, "وات": 719, "بط": 720, "راء": 721, "▁عمل": 722, "▁1": 723, "▁تن": 724, "▁عار": 725, "طر": 726, "▁هم": 727, "ضر": 728, "لمة": 729, "ذلك": 730, "▁تج": 731, "▁عندي": 732, "روح": 733, "لاث": 734, "▁يد": 735, "▁أس": 736, "▁ليه": 737, "▁وهو": 738, "▁عا": 739, "▁تكون": 740, "مو": 741, "نى": 742, "▁بص": 743, "▁طب": 744, "▁هناك": 745, "▁وص": 746, "▁يق": 747, "▁المش": 748, "وى": 749, "▁إلا": 750, "▁مرة": 751, "▁أص": 752, "لس": 753, "▁عليها": 754, "▁ومن": 755, "▁رح": 756, "▁اخ": 757, "ريد": 758, "▁ثم": 759, "▁أع": 760, "▁تس": 761, "حا": 762, "▁كتير": 763, "▁وش": 764, "سن": 765, "▁فه": 766, "لاص": 767, "▁فع": 768, "يت": 769, "▁شو": 770, "▁يمكن": 771, "رى": 772, "▁مو": 773, "ارك": 774, "▁إيه": 775, "اعة": 776, "▁كمان": 777, "الت": 778, "يش": 779, "▁المن": 780, "▁دا": 781, "▁الأم": 782, "سلام": 783, "ئة": 784, "▁المع": 785, "ضع": 786, "▁عد": 787, "رأ": 788, "رام": 789, "ابة": 790, "ودة": 791, "بدأ": 792, "▁تد": 793, "هل": 794, "الى": 795, "فضل": 796, "▁العالم": 797, "▁صلى": 798, "▁وبعد": 799, "▁تش": 800, "▁تخ": 801, "▁بيت": 802, "حظ": 803, "▁وسلم": 804, "▁للم": 805, "وك": 806, "▁2": 807, "ركة": 808, "تكلم": 809, "▁أول": 810, "▁منه": 811, "هار": 812, "▁a": 813, "اري": 814, "رم": 815, "▁عارف": 816, "▁سنة": 817, "ذن": 818, "▁اح": 819, "عر": 820, "وح": 821, "▁كله": 822, "▁الشي": 823, "▁نق": 824, "▁المد": 825, "ؤال": 826, "جد": 827, "وان": 828, "▁هن": 829, "▁وقت": 830, "مه": 831, "▁يس": 832, "▁كث": 833, "▁نت": 834, "وري": 835, "▁اله": 836, "▁اس": 837, "ديو": 838, "▁از": 839, "▁كما": 840, "قيقة": 841, "وش": 842, "▁والم": 843, "in": 844, "اعد": 845, "▁يست": 846, "▁الل": 847, "▁رأ": 848, "▁لكم": 849, "▁معا": 850, "▁جمي": 851, "▁خلاص": 852, "▁مص": 853, "▁ها": 854, "▁نحن": 855, "▁الآن": 856, "▁برض": 857, "▁وكان": 858, "▁خط": 859, "▁عنده": 860, "he": 861, "▁بأ": 862, "▁تقول": 863, "▁تص": 864, "▁وبي": 865, "▁لن": 866, "▁والت": 867, "▁بط": 868, "▁النبي": 869, "ربية": 870, "▁الوقت": 871, "▁الفي": 872, "مال": 873, "▁لت": 874, "فق": 875, "▁هاي": 876, "▁فأ": 877, "▁خلي": 878, "▁نعم": 879, "رجع": 880, "▁قل": 881, "كتب": 882, "▁حا": 883, "لوق": 884, "▁الان": 885, "▁ربنا": 886, "▁واحدة": 887, "▁ثلاث": 888, "▁الأول": 889, "وني": 890, "▁بشكل": 891, "كلة": 892, "▁وخ": 893, "▁لأنه": 894, "▁محمد": 895, "▁مصر": 896, "فل": 897, "▁تأ": 898, "يك": 899, "▁تحت": 900, "▁عندك": 901, "▁الض": 902, "اجات": 903, "رار": 904, "▁ظ": 905, "▁تاني": 906, "سه": 907, "▁مق": 908, "كتر": 909, "خذ": 910, "اح": 911, "جة": 912, "▁شخص": 913, "▁لله": 914, "نيا": 915, "▁شوية": 916, "▁إلي": 917, "▁صح": 918, "لاق": 919, "▁لهم": 920, "▁فر": 921, "▁فال": 922, "ناء": 923, "▁كلها": 924, "▁بر": 925, "▁ليس": 926, "▁نص": 927, "▁بم": 928, "ياة": 929, "ماء": 930, "ريقة": 931, "▁المست": 932, "▁أش": 933, "كة": 934, "▁حس": 935, "لاة": 936, "▁مهم": 937, "▁رس": 938, "▁تف": 939, "▁برضو": 940, "▁عليك": 941, "▁عل": 942, "▁يخ": 943, "▁الوا": 944, "▁ام": 945, "شان": 946, "▁مب": 947, "▁أيضا": 948, "جع": 949, "نية": 950, "▁شوف": 951, "جه": 952, "طع": 953, "▁النا": 954, "▁مثل": 955, "لوقتي": 956, "▁تمام": 957, "▁فإ": 958, "▁حي": 959, "▁وهي": 960, "▁حق": 961, "جر": 962, "▁عندنا": 963, "الك": 964, "سر": 965, "▁بيقول": 966, "لين": 967, "بب": 968, "▁كم": 969, "▁ابن": 970, "▁بق": 971, "وص": 972, "▁شك": 973, "▁تم": 974, "▁الموضوع": 975, "انه": 976, "▁تب": 977, "▁اول": 978, "جب": 979, "▁اص": 980, "حدث": 981, "طف": 982, "▁الكلام": 983, "▁تست": 984, "لعب": 985, "▁والأ": 986, "▁وف": 987, "▁عبد": 988, "▁كبير": 989, "▁عام": 990, "▁الاست": 991, "▁منها": 992, "اص": 993, "كلم": 994, "▁دلوقتي": 995, "▁قوي": 996, "ديث": 997, "▁لنا": 998, "▁الى": 999, "علم": 1000, "ايف": 1001, "▁البيت": 1002, "▁المص": 1003, "ليل": 1004, "ومة": 1005, "واء": 1006, "ذكر": 1007, "▁يش": 1008, "▁الرا": 1009, "▁عمر": 1010, "re": 1011, "▁راح": 1012, "▁بها": 1013, "▁أكثر": 1014, "▁يص": 1015, "▁ود": 1016, "▁مكان": 1017, "▁مين": 1018, "▁اك": 1019, "▁أت": 1020, "▁معنا": 1021, "on": 1022, "▁السلام": 1023, "▁ري": 1024, "قدم": 1025, "حتاج": 1026, "▁الام": 1027, "غي": 1028, "▁s": 1029, "▁ولي": 1030, "▁حيات": 1031, "▁حلو": 1032, "ولا": 1033, "▁القر": 1034, "ياء": 1035, "وقف": 1036, "اذ": 1037, "▁سبح": 1038, "▁المح": 1039, "▁إنه": 1040, "▁خال": 1041, "▁خلال": 1042, "أل": 1043, "▁صار": 1044, "▁كلمة": 1045, "ريب": 1046, "▁وتع": 1047, "جيب": 1048, "▁وط": 1049, "▁وهذا": 1050, "▁سن": 1051, "ختلف": 1052, "▁المج": 1053, "▁بدأ": 1054, "رع": 1055, "▁يلا": 1056, "▁الرح": 1057, "▁مي": 1058, "سان": 1059, "▁وبت": 1060, "▁موجود": 1061, "وها": 1062, "راحة": 1063, "نسبة": 1064, "▁وز": 1065, "▁لح": 1066, "▁حال": 1067, "▁ناس": 1068, "▁طول": 1069, "▁كي": 1070, "▁بأن": 1071, "الية": 1072, "خدم": 1073, "▁نفسه": 1074, "شف": 1075, "خب": 1076, "ديدة": 1077, "▁بك": 1078, "سية": 1079, "▁أحد": 1080, "▁النهار": 1081, "▁يأ": 1082, "▁هد": 1083, "▁أد": 1084, "▁الرج": 1085, "▁فقط": 1086, "ربي": 1087, "نسان": 1088, "▁عنه": 1089, "▁بنت": 1090, "اط": 1091, "ماعة": 1092, "er": 1093, "آن": 1094, "▁قاعد": 1095, "الب": 1096, "ضح": 1097, "ذي": 1098, "امة": 1099, "▁وقال": 1100, "وقع": 1101, "▁اخت": 1102, "▁عز": 1103, "خرى": 1104, "افة": 1105, "فعل": 1106, "▁كلام": 1107, "▁وانا": 1108, "شة": 1109, "▁نس": 1110, "رائ": 1111, "▁وان": 1112, "▁بالم": 1113, "▁بلا": 1114, "▁دول": 1115, "▁جاي": 1116, "▁عليكم": 1117, "▁بالنسبة": 1118, "▁عب": 1119, "سمع": 1120, "▁كانوا": 1121, "▁اذا": 1122, "▁آخر": 1123, "در": 1124, "▁الدنيا": 1125, "▁بالت": 1126, "سك": 1127, "▁تعرف": 1128, "يرا": 1129, "ملة": 1130, "ابت": 1131, "▁وانت": 1132, "▁والح": 1133, "قب": 1134, "وط": 1135, "اته": 1136, "▁فل": 1137, "▁فكرة": 1138, "▁أه": 1139, "ايا": 1140, "▁وأن": 1141, "ساعد": 1142, "▁جز": 1143, "▁عشر": 1144, "▁عرف": 1145, "باب": 1146, "كتور": 1147, "▁حبي": 1148, "▁الأس": 1149, "لاقي": 1150, "شتغل": 1151, "▁لدي": 1152, "▁أق": 1153, "لط": 1154, "▁يب": 1155, "فتح": 1156, "▁رج": 1157, "تين": 1158, "▁ملي": 1159, "▁كبيرة": 1160, "غة": 1161, "▁تط": 1162, "▁دائ": 1163, "▁لع": 1164, "▁أقول": 1165, "▁ازاي": 1166, "▁الشخص": 1167, "نب": 1168, "▁مؤ": 1169, "حر": 1170, "خلي": 1171, "00": 1172, "نع": 1173, "at": 1174, "وصل": 1175, "▁صحي": 1176, "ربة": 1177, "▁نقول": 1178, "فك": 1179, "▁the": 1180, "▁الحمد": 1181, "دت": 1182, "▁وكل": 1183, "نان": 1184, "▁بإ": 1185, "مسة": 1186, "لاح": 1187, "▁كوي": 1188, "▁ماذا": 1189, "لقة": 1190, "ئيس": 1191, "وال": 1192, "▁اج": 1193, "▁رق": 1194, "▁w": 1195, "▁لب": 1196, "اية": 1197, "▁السي": 1198, "▁سيد": 1199, "قع": 1200, "▁فعلا": 1201, "▁علشان": 1202, "▁جي": 1203, "غط": 1204, "يران": 1205, "▁أما": 1206, "▁مه": 1207, "▁اد": 1208, "▁يجب": 1209, "▁وده": 1210, "▁كذا": 1211, "▁علا": 1212, "انة": 1213, "▁وإن": 1214, "ريم": 1215, "زا": 1216, "▁الإنسان": 1217, "▁موا": 1218, "ريك": 1219, "▁باب": 1220, "▁طلع": 1221, "▁جاء": 1222, "لوب": 1223, "ربع": 1224, "اهد": 1225, "▁الجز": 1226, "▁الذين": 1227, "▁اقول": 1228, "▁c": 1229, "▁إذن": 1230, "▁بدي": 1231, "داية": 1232, "قيق": 1233, "كو": 1234, "▁خير": 1235, "▁الصلاة": 1236, "▁شايف": 1237, "▁ورا": 1238, "طقة": 1239, "▁مف": 1240, "▁مر": 1241, "▁قدام": 1242, "فظ": 1243, "ضية": 1244, "▁بقول": 1245, "▁علم": 1246, "اصة": 1247, "▁موجودة": 1248, "▁نظ": 1249, "▁معي": 1250, "▁النهاردة": 1251, "▁المق": 1252, "▁ماشي": 1253, "en": 1254, "▁الكت": 1255, "نام": 1256, "▁المؤ": 1257, "▁وين": 1258, "▁جماعة": 1259, "▁وتعالى": 1260, "لاء": 1261, "ماع": 1262, "▁تعمل": 1263, "حق": 1264, "▁وأنا": 1265, "▁تعالى": 1266, "ظيم": 1267, "▁التع": 1268, "ونا": 1269, "▁اسمه": 1270, "▁الأرض": 1271, "ذهب": 1272, "▁مط": 1273, "▁الما": 1274, "▁إحنا": 1275, "▁الفيديو": 1276, "▁للأ": 1277, "تش": 1278, "▁تك": 1279, "حظة": 1280, "▁داي": 1281, "وار": 1282, "▁نفسك": 1283, "▁مشكلة": 1284, "هي": 1285, "▁مبا": 1286, "ou": 1287, "فهم": 1288, "▁عليهم": 1289, "▁انك": 1290, "فاع": 1291, "▁المهم": 1292, "ليم": 1293, "▁الات": 1294, "▁أست": 1295, "▁ألف": 1296, "تم": 1297, "اريخ": 1298, "▁وعلى": 1299, "▁عندما": 1300, "▁اش": 1301, "▁الاول": 1302, "▁يم": 1303, "بار": 1304, "▁كنا": 1305, "▁سبحانه": 1306, "▁بالك": 1307, "▁رسول": 1308, "بيع": 1309, "▁سأ": 1310, "قات": 1311, "▁الحياة": 1312, "▁قص": 1313, "هات": 1314, "▁مخ": 1315, "داء": 1316, "زن": 1317, "لوس": 1318, "قف": 1319, "مار": 1320, "طيع": 1321, "هاية": 1322, "▁3": 1323, "▁هيك": 1324, "ثير": 1325, "or": 1326, "ركز": 1327, "▁نع": 1328, "جم": 1329, "ريبا": 1330, "▁حصل": 1331, "▁اعت": 1332, "▁يعرف": 1333, "▁فوق": 1334, "شن": 1335, "▁بخ": 1336, "ضة": 1337, "لهم": 1338, "▁خد": 1339, "بات": 1340, "▁ور": 1341, "شا": 1342, "▁تبقى": 1343, "ادر": 1344, "▁السؤال": 1345, "قيت": 1346, "▁ثلاثة": 1347, "▁كثير": 1348, "كد": 1349, "▁أبو": 1350, "▁للت": 1351, "الح": 1352, "▁صا": 1353, "▁الفت": 1354, "▁وجل": 1355, "طب": 1356, "▁التح": 1357, "▁الموا": 1358, "▁يعمل": 1359, "▁دائما": 1360, "▁قلب": 1361, "▁جديد": 1362, "ظم": 1363, "صف": 1364, "أة": 1365, "راه": 1366, "▁لسه": 1367, "ارج": 1368, "خلص": 1369, "صدق": 1370, "يادة": 1371, "▁داخل": 1372, "▁الأمر": 1373, "▁شغ": 1374, "▁المغ": 1375, "▁ليش": 1376, "اله": 1377, "▁أج": 1378, "▁الأخ": 1379, "ابع": 1380, "ظهر": 1381, "▁الثاني": 1382, "▁بما": 1383, "▁فإن": 1384, "▁الخط": 1385, "رجة": 1386, "is": 1387, "يمة": 1388, "▁ومع": 1389, "▁موضوع": 1390, "▁رقم": 1391, "تمع": 1392, "حية": 1393, "▁عي": 1394, "رعة": 1395, "an": 1396, "اس": 1397, "▁لق": 1398, "ضرتك": 1399, "▁فعل": 1400, "▁قول": 1401, "اخد": 1402, "▁سمع": 1403, "▁اع": 1404, "▁ساعة": 1405, "▁العربية": 1406, "▁p": 1407, "▁والع": 1408, "▁وبعدين": 1409, "it": 1410, "▁صد": 1411, "▁كام": 1412, "▁ذكر": 1413, "▁شكرا": 1414, "▁انها": 1415, "▁القرآن": 1416, "▁بالله": 1417, "▁نوع": 1418, "لاف": 1419, "▁واللي": 1420, "رية": 1421, "ائل": 1422, "قص": 1423, "es": 1424, "ناة": 1425, "▁برا": 1426, "▁مرت": 1427, "ارع": 1428, "▁أنك": 1429, "▁وصل": 1430, "▁الار": 1431, "▁منهم": 1432, "▁وقد": 1433, "▁نش": 1434, "▁دون": 1435, "لاد": 1436, "▁سؤال": 1437, "▁مختلف": 1438, "نو": 1439, "▁الدين": 1440, "▁الاج": 1441, "بعة": 1442, "غم": 1443, "▁مض": 1444, "▁مني": 1445, "▁الحقيقة": 1446, "▁اكتر": 1447, "واب": 1448, "▁ولو": 1449, "▁دع": 1450, "▁ک": 1451, "الث": 1452, "▁إي": 1453, "▁منا": 1454, "▁منت": 1455, "عود": 1456, "▁دور": 1457, "وء": 1458, "▁طريق": 1459, "▁والسلام": 1460, "ربعة": 1461, "▁فقال": 1462, "▁تانية": 1463, "▁كويس": 1464, "▁حاجات": 1465, "▁والد": 1466, "يام": 1467, "ضرب": 1468, "▁قالوا": 1469, "از": 1470, "▁فين": 1471, "▁خالص": 1472, "▁وجه": 1473, "▁نفسي": 1474, "ضل": 1475, "▁فلا": 1476, "▁فهم": 1477, "▁العم": 1478, "تنا": 1479, "▁فب": 1480, "▁اسمها": 1481, "رفة": 1482, "▁بيح": 1483, "▁دايما": 1484, "طق": 1485, "▁اشت": 1486, "▁d": 1487, "التالي": 1488, "▁احت": 1489, "اك": 1490, "راق": 1491, "▁صحيح": 1492, "ابل": 1493, "▁اتنين": 1494, "غيرة": 1495, "ادي": 1496, "▁اق": 1497, "شرة": 1498, "▁لحد": 1499, "▁اللهم": 1500, "▁حرف": 1501, "▁يف": 1502, "وبة": 1503, "بير": 1504, "▁المف": 1505, "▁العمل": 1506, "عيد": 1507, "▁خمسة": 1508, "روع": 1509, "▁بتت": 1510, "قر": 1511, "▁مرح": 1512, "لح": 1513, "▁العلم": 1514, "لال": 1515, "▁عاد": 1516, "▁ومش": 1517, "روف": 1518, "انيا": 1519, "▁الرجل": 1520, "▁وبين": 1521, "▁المكان": 1522, "دم": 1523, "▁ترك": 1524, "افظ": 1525, "ئا": 1526, "▁اللا": 1527, "اكل": 1528, "▁أنها": 1529, "▁جديدة": 1530, "▁حيث": 1531, "▁نشوف": 1532, "اول": 1533, "انب": 1534, "ديم": 1535, "▁السيا": 1536, "ساس": 1537, "راد": 1538, "▁خمس": 1539, "▁رم": 1540, "▁الانت": 1541, "روض": 1542, "▁إس": 1543, "يبة": 1544, "▁b": 1545, "▁20": 1546, "▁نج": 1547, "▁تر": 1548, "▁أخرى": 1549, "▁خلص": 1550, "▁الأش": 1551, "راة": 1552, "▁دخ": 1553, "▁أمر": 1554, "▁المط": 1555, "▁تقريبا": 1556, "▁منك": 1557, "▁صف": 1558, "▁ند": 1559, "▁حين": 1560, "▁دخل": 1561, "▁بير": 1562, "▁يط": 1563, "▁تز": 1564, "▁الدا": 1565, "▁بسي": 1566, "▁تعال": 1567, "راك": 1568, "سل": 1569, "▁لانه": 1570, "▁جد": 1571, "▁مهمة": 1572, "طن": 1573, "موعة": 1574, "▁عادي": 1575, "▁يك": 1576, "▁معه": 1577, "▁زوج": 1578, "ثل": 1579, "▁أهل": 1580, "▁قالت": 1581, "▁الآخر": 1582, "▁بالأ": 1583, "▁ساع": 1584, "▁الري": 1585, "بس": 1586, "قبل": 1587, "▁تما": 1588, "▁بتقول": 1589, "▁الإسلام": 1590, "▁شر": 1591, "▁شفت": 1592, "▁كتاب": 1593, "▁سواء": 1594, "▁عندهم": 1595, "فيش": 1596, "▁m": 1597, "▁بتح": 1598, "▁أبي": 1599, "▁المنت": 1600, "▁تي": 1601, "▁لإ": 1602, "خرج": 1603, "▁علينا": 1604, "▁وهنا": 1605, "▁رو": 1606, "al": 1607, "▁الظ": 1608, "▁سا": 1609, "▁بكل": 1610, "ذب": 1611, "ing": 1612, "▁يز": 1613, "ونة": 1614, "▁لماذا": 1615, "▁سوف": 1616, "وجد": 1617, "▁ترى": 1618, "يفة": 1619, "جز": 1620, "▁الشر": 1621, "رائيل": 1622, "جلس": 1623, "▁بالع": 1624, "▁شهر": 1625, "▁بهذا": 1626, "دأ": 1627, "▁أكبر": 1628, "▁لد": 1629, "اقة": 1630, "▁تشوف": 1631, "لمين": 1632, "▁طوي": 1633, "▁حول": 1634, "▁حضرتك": 1635, "▁روح": 1636, "▁النفس": 1637, "▁المو": 1638, "راب": 1639, "▁عدد": 1640, "▁والس": 1641, "▁اما": 1642, "صب": 1643, "▁فن": 1644, "صي": 1645, "لد": 1646, "▁أخذ": 1647, "ميل": 1648, "▁الدولة": 1649, "▁والن": 1650, "▁ودي": 1651, "▁أف": 1652, "▁يجي": 1653, "ثنين": 1654, "▁شع": 1655, "▁الفر": 1656, "▁o": 1657, "راف": 1658, "انون": 1659, "▁حل": 1660, "ارب": 1661, "▁قر": 1662, "حاب": 1663, "ائد": 1664, "▁رجل": 1665, "▁هال": 1666, "▁ولم": 1667, "لسل": 1668, "▁فيش": 1669, "▁الحديث": 1670, "جن": 1671, "صدر": 1672, "▁لقد": 1673, "▁f": 1674, "▁الرس": 1675, "اتي": 1676, "▁فهو": 1677, "▁حب": 1678, "▁حالة": 1679, "▁صاحب": 1680, "عادة": 1681, "باح": 1682, "▁الصح": 1683, "▁قط": 1684, "▁نست": 1685, "صار": 1686, "▁الاس": 1687, "▁نز": 1688, "▁عق": 1689, "منى": 1690, "▁قلنا": 1691, "طين": 1692, "فاق": 1693, "▁جداً": 1694, "ولد": 1695, "▁بنفس": 1696, "لاً": 1697, "▁كأن": 1698, "▁بسبب": 1699, "▁فات": 1700, "▁إليه": 1701, "▁جزء": 1702, "ئية": 1703, "▁سلام": 1704, "والي": 1705, "▁عنها": 1706, "▁قدر": 1707, "▁l": 1708, "nd": 1709, "تهم": 1710, "حن": 1711, "▁المنا": 1712, "جاب": 1713, "▁سم": 1714, "ركات": 1715, "▁تو": 1716, "▁اخر": 1717, "وجه": 1718, "ورو": 1719, "▁دكتور": 1720, "▁الحرب": 1721, "▁عايزة": 1722, "▁تقدر": 1723, "▁كذلك": 1724, "▁عندها": 1725, "زق": 1726, "▁بيكون": 1727, "ضاء": 1728, "▁والا": 1729, "▁بج": 1730, "▁مك": 1731, "▁أمام": 1732, "▁عملت": 1733, "▁اصلا": 1734, "▁شف": 1735, "▁السنة": 1736, "▁معك": 1737, "قط": 1738, "▁قصة": 1739, "▁الخير": 1740, "▁تلك": 1741, "كذا": 1742, "▁تلات": 1743, "▁مز": 1744, "▁ورح": 1745, "▁مفيش": 1746, "▁الأولى": 1747, "حل": 1748, "▁طبي": 1749, "▁قت": 1750, "صيل": 1751, "▁محت": 1752, "نج": 1753, "▁الشيء": 1754, "▁محتاج": 1755, "وتي": 1756, "▁تماما": 1757, "▁حلوة": 1758, "▁واست": 1759, "▁التج": 1760, "▁بسم": 1761, "واصل": 1762, "▁فقد": 1763, "ريكا": 1764, "▁والإ": 1765, "▁جن": 1766, "▁ربي": 1767, "قتص": 1768, "▁والش": 1769, "▁يؤ": 1770, "▁بالح": 1771, "طان": 1772, "ذر": 1773, "▁طلب": 1774, "عين": 1775, "▁طال": 1776, "▁الرحمن": 1777, "▁القصة": 1778, "▁اني": 1779, "سف": 1780, "▁شوي": 1781, "▁الأح": 1782, "▁معنى": 1783, "▁هاد": 1784, "▁مجرد": 1785, "اعت": 1786, "اً": 1787, "▁شكل": 1788, "▁اعمل": 1789, "بيل": 1790, "وو": 1791, "نك": 1792, "يز": 1793, "ion": 1794, "▁الباب": 1795, "راض": 1796, "ريبة": 1797, "عمال": 1798, "▁سب": 1799, "▁نعمل": 1800, "▁بيه": 1801, "ضان": 1802, "زاي": 1803, "▁اف": 1804, "ar": 1805, "ونه": 1806, "▁جوا": 1807, "▁وار": 1808, "ينه": 1809, "▁مما": 1810, "▁حض": 1811, "هور": 1812, "▁الملك": 1813, "ريف": 1814, "▁أفضل": 1815, "▁بيها": 1816, "▁الحق": 1817, "▁باي": 1818, "▁يعت": 1819, "عامل": 1820, "▁الكتاب": 1821, "راج": 1822, "▁4": 1823, "▁فتح": 1824, "▁كن": 1825, "ناه": 1826, "▁خاصة": 1827, "▁سيا": 1828, "قوا": 1829, "▁الحاجات": 1830, "▁to": 1831, "▁أني": 1832, "ورية": 1833, "▁خلق": 1834, "اعر": 1835, "رسة": 1836, "افر": 1837, "ومي": 1838, "▁وث": 1839, "▁هما": 1840, "▁جميل": 1841, "ألة": 1842, "▁الهد": 1843, "ئلة": 1844, "▁أكتر": 1845, "▁الفعل": 1846, "▁لكل": 1847, "شرين": 1848, "ولية": 1849, "▁حسن": 1850, "▁البر": 1851, "رأة": 1852, "سبوع": 1853, "عو": 1854, "ارس": 1855, "▁دولة": 1856, "▁غلط": 1857, "نامج": 1858, "▁المصري": 1859, "▁نقطة": 1860, "▁أبدا": 1861, "▁أغ": 1862, "▁أهم": 1863, "ميع": 1864, "▁فترة": 1865, "نيه": 1866, "▁علاقة": 1867, "▁ذا": 1868, "طل": 1869, "ختار": 1870, "▁بدأت": 1871, "▁جل": 1872, "بيت": 1873, "ريكية": 1874, "▁رضي": 1875, "▁بغ": 1876, "▁لذلك": 1877, "نه": 1878, "داد": 1879, "▁بعدها": 1880, "يح": 1881, "▁إيران": 1882, "▁الثالث": 1883, "طلب": 1884, "▁عنا": 1885, "▁سنين": 1886, "▁يريد": 1887, "▁فج": 1888, "▁وعند": 1889, "▁نف": 1890, "يانا": 1891, "الات": 1892, "▁يكن": 1893, "▁بنا": 1894, "▁سيدنا": 1895, "▁مليون": 1896, "ريح": 1897, "▁در": 1898, "▁الاي": 1899, "▁خص": 1900, "لومات": 1901, "▁حص": 1902, "▁المنطقة": 1903, "▁فيهم": 1904, "▁بب": 1905, "مين": 1906, "اش": 1907, "▁هون": 1908, "▁يقدر": 1909, "▁شيئا": 1910, "▁تعلم": 1911, "سين": 1912, "▁آآ": 1913, "▁ملا": 1914, "▁بمع": 1915, "▁بدون": 1916, "▁حط": 1917, "ريكي": 1918, "▁ملك": 1919, "▁بيد": 1920, "▁والص": 1921, "طار": 1922, "نتي": 1923, "▁ني": 1924, "▁يه": 1925, "▁5": 1926, "▁ضع": 1927, "ظام": 1928, "▁رك": 1929, "▁المشكلة": 1930, "▁بالش": 1931, "▁البحر": 1932, "عتقد": 1933, "▁رأي": 1934, "حتى": 1935, "زب": 1936, "▁th": 1937, "▁عملية": 1938, "▁فما": 1939, "▁طريقة": 1940, "مسك": 1941, "رائي": 1942, "▁المبا": 1943, "وير": 1944, "سمي": 1945, "طفال": 1946, "يق": 1947, "ثة": 1948, "▁بني": 1949, "▁العد": 1950, "▁وبالتالي": 1951, "▁المخ": 1952, "▁مال": 1953, "▁ستة": 1954, "▁النار": 1955, "سات": 1956, "وما": 1957, "▁خرج": 1958, "▁صوت": 1959, "▁عالم": 1960, "▁العام": 1961, "دين": 1962, "راع": 1963, "رش": 1964, "▁كتب": 1965, "▁وهم": 1966, "▁إب": 1967, "حط": 1968, "حاول": 1969, "كمة": 1970, "▁الجن": 1971, "ین": 1972, "▁لغ": 1973, "ائر": 1974, "▁حسب": 1975, "▁عايزين": 1976, "تر": 1977, "امي": 1978, "عبة": 1979, "▁الساعة": 1980, "ناها": 1981, "▁كلهم": 1982, "▁الفكرة": 1983, "▁اكت": 1984, "▁ربما": 1985, "▁وعن": 1986, "▁التن": 1987, "▁يطلع": 1988, "▁بو": 1989, "▁بعدين": 1990, "ic": 1991, "مية": 1992, "▁الثانية": 1993, "بعض": 1994, "▁يغ": 1995, "زيز": 1996, "▁فيديو": 1997, "سد": 1998, "▁ولما": 1999, "خي": 2000, "▁أستاذ": 2001, "▁in": 2002, "رفع": 2003, "قه": 2004, "▁رئيس": 2005, "▁العلا": 2006, "▁العظيم": 2007, "▁المدينة": 2008, "افية": 2009, "▁وضع": 2010, "حك": 2011, "قيقي": 2012, "▁جه": 2013, "▁صغيرة": 2014, "لوك": 2015, "ed": 2016, "▁الكل": 2017, "▁فيك": 2018, "روب": 2019, "▁مغ": 2020, "▁محد": 2021, "▁وعد": 2022, "▁قب": 2023, "▁ديال": 2024, "▁مجموعة": 2025, "فين": 2026, "▁وات": 2027, "▁امت": 2028, "▁طبعاً": 2029, "▁التص": 2030, "▁صغير": 2031, "ورا": 2032, "مانية": 2033, "▁الأمور": 2034, "▁واضح": 2035, "▁كامل": 2036, "▁عامل": 2037, "▁معاك": 2038, "▁الحاجة": 2039, "▁يدخل": 2040, "▁الست": 2041, "ريت": 2042, "▁نفسها": 2043, "▁مات": 2044, "▁النص": 2045, "▁ليست": 2046, "▁وإذا": 2047, "هاز": 2048, "خدام": 2049, "لها": 2050, "▁ويت": 2051, "▁قوة": 2052, "▁الأن": 2053, "▁يحب": 2054, "▁تغ": 2055, "ميز": 2056, "ارت": 2057, "اق": 2058, "▁معاه": 2059, "لاب": 2060, "▁and": 2061, "▁وهذه": 2062, "▁هلأ": 2063, "▁جميع": 2064, "▁بسرعة": 2065, "▁الواحد": 2066, "حرك": 2067, "▁جمع": 2068, "▁تل": 2069, "▁رمضان": 2070, "▁ضد": 2071, "▁نعرف": 2072, "▁وغير": 2073, "▁إنها": 2074, "▁ته": 2075, "▁صدي": 2076, "وريا": 2077, "▁عشرة": 2078, "▁النق": 2079, "▁مستوى": 2080, "▁باش": 2081, "ليف": 2082, "ساوي": 2083, "▁وكم": 2084, "▁أجل": 2085, "لون": 2086, "▁أولا": 2087, "▁يأتي": 2088, "▁لعب": 2089, "ياه": 2090, "▁بز": 2091, "راهيم": 2092, "طور": 2093, "▁للح": 2094, "▁حدث": 2095, "▁h": 2096, "تماع": 2097, "▁ينت": 2098, "▁ينفع": 2099, "▁والك": 2100, "▁مرا": 2101, "داف": 2102, "▁معايا": 2103, "ادية": 2104, "▁الرئيس": 2105, "▁الطريق": 2106, "▁بحب": 2107, "صول": 2108, "▁بيعمل": 2109, "اعل": 2110, "ابات": 2111, "▁بداية": 2112, "▁الاخ": 2113, "▁المب": 2114, "▁أكيد": 2115, "▁لس": 2116, "▁وض": 2117, "مير": 2118, "▁الحلقة": 2119, "▁وبال": 2120, "▁الإس": 2121, "خة": 2122, "روس": 2123, "▁حديث": 2124, "▁زمان": 2125, "▁شباب": 2126, "▁صورة": 2127, "▁معل": 2128, "صير": 2129, "▁عبارة": 2130, "▁الموج": 2131, "▁الدول": 2132, "▁التق": 2133, "▁هذي": 2134, "▁إنما": 2135, "▁of": 2136, "▁معينة": 2137, "▁ابو": 2138, "▁أث": 2139, "▁عمي": 2140, "▁ابت": 2141, "علق": 2142, "جاح": 2143, "▁y": 2144, "▁جاب": 2145, "▁أحمد": 2146, "▁ويب": 2147, "▁n": 2148, "▁فيما": 2149, "رامب": 2150, "لوا": 2151, "▁أيها": 2152, "▁بيبقى": 2153, "▁عبر": 2154, "ؤلاء": 2155, "le": 2156, "▁بالض": 2157, "امعة": 2158, "▁بيع": 2159, "▁الفيلم": 2160, "▁المسلمين": 2161, "▁ضرب": 2162, "صور": 2163, "جابة": 2164, "▁فكر": 2165, "أكد": 2166, "▁I": 2167, "▁الحد": 2168, "سط": 2169, "▁عبدال": 2170, "▁بالن": 2171, "▁فلوس": 2172, "▁أعرف": 2173, "▁عين": 2174, "ولار": 2175, "ديا": 2176, "▁فك": 2177, "▁نم": 2178, "▁الإي": 2179, "▁يوجد": 2180, "▁المجتمع": 2181, "▁إسرائيل": 2182, "▁الليل": 2183, "بلغ": 2184, "▁وليس": 2185, "▁فلما": 2186, "▁لج": 2187, "▁اغ": 2188, "▁وصلت": 2189, "واع": 2190, "ضيف": 2191, "▁مختلفة": 2192, "ليات": 2193, "▁دين": 2194, "om": 2195, "▁حم": 2196, "▁أصلا": 2197, "▁النس": 2198, "▁حاول": 2199, "سكر": 2200, "ديك": 2201, "▁قام": 2202, "▁نظر": 2203, "▁المتحدة": 2204, "▁ارت": 2205, "شتري": 2206, "▁جب": 2207, "▁موس": 2208, "▁عاوز": 2209, "▁والج": 2210, "▁وجود": 2211, "▁الور": 2212, "▁خلينا": 2213, "▁فإذا": 2214, "▁كثيرة": 2215, "واج": 2216, "▁الحك": 2217, "ليك": 2218, "لامة": 2219, "as": 2220, "▁أحب": 2221, "خاص": 2222, "▁شغل": 2223, "داث": 2224, "ملك": 2225, "▁يسم": 2226, "فو": 2227, "▁حياة": 2228, "طلق": 2229, "▁رائ": 2230, "▁أريد": 2231, "▁فم": 2232, "▁A": 2233, "▁خبر": 2234, "▁عال": 2235, "▁ممت": 2236, "▁الشيخ": 2237, "زين": 2238, "▁الكلمة": 2239, "▁يعلم": 2240, "اهر": 2241, "▁والق": 2242, "ائق": 2243, "دخل": 2244, "▁سه": 2245, "▁ورحمة": 2246, "▁نبي": 2247, "▁بالإ": 2248, "▁العالمين": 2249, "▁6": 2250, "▁قلي": 2251, "وائ": 2252, "يري": 2253, "▁تطلع": 2254, "▁لهذا": 2255, "▁تعت": 2256, "▁تاريخ": 2257, "جرة": 2258, "▁رد": 2259, "▁صراحة": 2260, "ضب": 2261, "▁منذ": 2262, "▁كانش": 2263, "▁حوالي": 2264, "أس": 2265, "▁مية": 2266, "وتر": 2267, "بدو": 2268, "قاط": 2269, "▁امر": 2270, "شل": 2271, "قيم": 2272, "ent": 2273, "▁ير": 2274, "▁وسط": 2275, "▁إله": 2276, "▁التاني": 2277, "▁بصراحة": 2278, "▁بطريقة": 2279, "▁مفت": 2280, "▁جميلة": 2281, "▁لكي": 2282, "▁وقف": 2283, "▁سبب": 2284, "▁فكان": 2285, "▁بالس": 2286, "▁للا": 2287, "زمة": 2288, "ادة": 2289, "▁ترامب": 2290, "▁وير": 2291, "ve": 2292, "هما": 2293, "▁نهاية": 2294, "▁الصف": 2295, "▁معها": 2296, "▁الطبي": 2297, "▁الساب": 2298, "ضافة": 2299, "▁والب": 2300, "▁البلد": 2301, "فاصيل": 2302, "عيش": 2303, "▁دم": 2304, "▁تنت": 2305, "▁دخلت": 2306, "▁وغ": 2307, "▁مكت": 2308, "▁واي": 2309, "▁شاف": 2310, "▁بالق": 2311, "▁أخي": 2312, "▁فاهم": 2313, "▁للع": 2314, "نف": 2315, "الف": 2316, "▁ايش": 2317, "ائي": 2318, "▁المؤمن": 2319, "هام": 2320, "▁القلب": 2321, "▁حبيب": 2322, "▁إنسان": 2323, "▁القد": 2324, "▁أيام": 2325, "▁شا": 2326, "دارة": 2327, "▁بحي": 2328, "▁الملا": 2329, "▁القناة": 2330, "اهرة": 2331, "ليه": 2332, "▁الحب": 2333, "▁الماء": 2334, "▁الصورة": 2335, "▁حكم": 2336, "▁حبيبي": 2337, "لته": 2338, "▁لحظة": 2339, "▁الاحت": 2340, "▁جنيه": 2341, "جوز": 2342, "▁الرحيم": 2343, "▁يشوف": 2344, "▁نب": 2345, "▁وراء": 2346, "▁ثانية": 2347, "ويل": 2348, "▁المصر": 2349, "طاء": 2350, "فكار": 2351, "▁دار": 2352, "▁حما": 2353, "▁سر": 2354, "▁الحي": 2355, "▁التاريخ": 2356, "▁كلنا": 2357, "▁عرض": 2358, "بعين": 2359, "▁وكانت": 2360, "لاقات": 2361, "▁باست": 2362, "▁قادر": 2363, "▁المرأة": 2364, "▁وآ": 2365, "▁يتم": 2366, "▁الرق": 2367, "زع": 2368, "▁اللع": 2369, "▁محا": 2370, "▁ولذلك": 2371, "قين": 2372, "▁الجنة": 2373, "ll": 2374, "ارية": 2375, "▁تدخل": 2376, "▁الطريقة": 2377, "▁إزاي": 2378, "فيد": 2379, "▁هؤلاء": 2380, "▁للش": 2381, "▁اللب": 2382, "طرة": 2383, "▁فض": 2384, "▁كال": 2385, "دية": 2386, "▁كثيرا": 2387, "عار": 2388, "▁بتعمل": 2389, "كيد": 2390, "▁ولد": 2391, "▁عارفين": 2392, "▁اكيد": 2393, "▁معين": 2394, "▁المال": 2395, "ريع": 2396, "▁حدا": 2397, "ذك": 2398, "▁بالز": 2399, "واجه": 2400, "▁المه": 2401, "▁صعب": 2402, "▁سبحان": 2403, "▁التانية": 2404, "راتي": 2405, "▁رفع": 2406, "قال": 2407, "▁العل": 2408, "▁شنو": 2409, "▁بمعنى": 2410, "▁بتاعت": 2411, "▁عبا": 2412, "ليا": 2413, "▁نور": 2414, "وله": 2415, "▁حقيقة": 2416, "▁e": 2417, "▁تكلم": 2418, "▁نن": 2419, "فكر": 2420, "▁الدكتور": 2421, "سباب": 2422, "روا": 2423, "▁فهي": 2424, "▁بار": 2425, "▁بهذه": 2426, "▁وتح": 2427, "▁الراجل": 2428, "▁فيلم": 2429, "ايل": 2430, "▁السبب": 2431, "▁التس": 2432, "▁درجة": 2433, "▁البداية": 2434, "▁الكريم": 2435, "▁ويقول": 2436, "قاش": 2437, "▁الأد": 2438, "▁ومت": 2439, "▁الشعب": 2440, "▁كا": 2441, "ولوج": 2442, "▁تلاتة": 2443, "▁الأب": 2444, "▁الأمريكية": 2445, "▁تبع": 2446, "جاز": 2447, "▁جاه": 2448, "▁المفروض": 2449, "▁للد": 2450, "▁ابني": 2451, "▁هدف": 2452, "كمل": 2453, "ناسبة": 2454, "▁البط": 2455, "جاه": 2456, "بحث": 2457, "ونها": 2458, "ريات": 2459, "▁مشاكل": 2460, "شاء": 2461, "▁شايفين": 2462, "▁شركة": 2463, "▁اربعة": 2464, "▁بابا": 2465, "▁العق": 2466, "▁تريد": 2467, "▁نتكلم": 2468, "▁تروح": 2469, "▁جملة": 2470, "▁صور": 2471, "▁اثنين": 2472, "ارق": 2473, "▁الولا": 2474, "▁اهو": 2475, "▁مسلا": 2476, "ct": 2477, "شك": 2478, "راءة": 2479, "▁الجزء": 2480, "▁المنتخب": 2481, "▁طويلة": 2482, "▁مم": 2483, "▁الاب": 2484, "▁الفترة": 2485, "▁عايش": 2486, "صح": 2487, "▁اللق": 2488, "▁السن": 2489, "▁هقول": 2490, "قوم": 2491, "▁والخ": 2492, "فن": 2493, "▁خي": 2494, "▁حياتك": 2495, "▁الحالة": 2496, "▁ذات": 2497, "▁المز": 2498, "▁الدع": 2499, "▁شخصية": 2500, "▁العب": 2501, "▁الجملة": 2502, "ودي": 2503, "▁سنوات": 2504, "▁ويا": 2505, "▁دولار": 2506, "▁أحسن": 2507, "▁للن": 2508, "▁you": 2509, "فاء": 2510, "▁8": 2511, "▁بكم": 2512, "ماعي": 2513, "ريا": 2514, "▁الماضي": 2515, "غيير": 2516, "▁معهم": 2517, "▁لش": 2518, "▁نزل": 2519, "وسف": 2520, "▁تنس": 2521, "▁المث": 2522, "كين": 2523, "▁وكمان": 2524, "ابه": 2525, "▁مل": 2526, "▁منطقة": 2527, "▁أنهم": 2528, "▁خارج": 2529, "▁الجيش": 2530, "عى": 2531, "▁وبرك": 2532, "غر": 2533, "خرة": 2534, "▁اللحظة": 2535, "▁شوفوا": 2536, "▁فرصة": 2537, "ضغط": 2538, "جح": 2539, "▁الوح": 2540, "▁الرب": 2541, "▁الموت": 2542, "▁الطفل": 2543, "دى": 2544, "▁المي": 2545, "▁می": 2546, "▁كون": 2547, "▁وعشرين": 2548, "سيت": 2549, "بية": 2550, "▁جوه": 2551, "ريمة": 2552, "▁الاه": 2553, "▁تغير": 2554, "▁رجع": 2555, "▁جا": 2556, "▁أربع": 2557, "▁أعتقد": 2558, "▁بسيطة": 2559, "▁هات": 2560, "▁مسا": 2561, "نتين": 2562, "▁السماء": 2563, "بين": 2564, "▁الاخر": 2565, "ظن": 2566, "▁ورب": 2567, "▁الشباب": 2568, "رارة": 2569, "▁وأنت": 2570, "▁احد": 2571, "▁درا": 2572, "▁انتو": 2573, "▁المية": 2574, "▁طالب": 2575, "▁که": 2576, "▁الأع": 2577, "ويت": 2578, "▁أين": 2579, "▁عارفة": 2580, "▁وأي": 2581, "▁العربي": 2582, "▁وطبعا": 2583, "جات": 2584, "▁عدم": 2585, "▁مدينة": 2586, "▁بان": 2587, "▁دقيقة": 2588, "▁آه": 2589, "فرج": 2590, "بو": 2591, "▁فأنا": 2592, "جوم": 2593, "كاية": 2594, "تح": 2595, "▁للإ": 2596, "us": 2597, "وضع": 2598, "▁يروح": 2599, "▁بناء": 2600, "▁خب": 2601, "▁المسي": 2602, "▁محل": 2603, "▁عائ": 2604, "عام": 2605, "▁المغرب": 2606, "▁البشر": 2607, "▁الشمس": 2608, "▁التأ": 2609, "▁أمي": 2610, "▁يبدأ": 2611, "ورد": 2612, "▁وبدأ": 2613, "▁الكبير": 2614, "▁اسمع": 2615, "▁هذ": 2616, "ضيع": 2617, "ناع": 2618, "▁فان": 2619, "طا": 2620, "▁تا": 2621, "▁واس": 2622, "▁يحصل": 2623, "▁العرب": 2624, "قق": 2625, "▁g": 2626, "▁بإذن": 2627, "▁رغم": 2628, "▁این": 2629, "تا": 2630, "▁بيحصل": 2631, "▁مباشرة": 2632, "▁لكنه": 2633, "▁المباراة": 2634, "▁بدل": 2635, "▁الأشياء": 2636, "▁يصير": 2637, "▁وعمل": 2638, "▁الواقع": 2639, "▁بنات": 2640, "▁حك": 2641, "▁هلا": 2642, "▁فهذا": 2643, "▁أسا": 2644, "ره": 2645, "▁جيد": 2646, "▁نحو": 2647, "▁حرب": 2648, "قيقية": 2649, "▁الصحي": 2650, "▁مرحلة": 2651, "▁عني": 2652, "▁ليلة": 2653, "▁الشكل": 2654, "▁الدي": 2655, "▁قاعدة": 2656, "راط": 2657, "وين": 2658, "▁القاد": 2659, "▁بات": 2660, "▁بتكون": 2661, "▁قيمة": 2662, "▁قاد": 2663, "▁وبركاته": 2664, "▁اللغة": 2665, "بك": 2666, "▁فانا": 2667, "حات": 2668, "▁لدينا": 2669, "▁عشرين": 2670, "▁الشيطان": 2671, "▁للس": 2672, "▁أقل": 2673, "فه": 2674, "▁وفيه": 2675, "ديمة": 2676, "مك": 2677, "▁نبدأ": 2678, "▁يدي": 2679, "رسل": 2680, "▁قوم": 2681, "دنا": 2682, "▁والف": 2683, "▁الشع": 2684, "▁وست": 2685, "▁الكثير": 2686, "▁فس": 2687, "عداد": 2688, "▁النهاية": 2689, "▁بتق": 2690, "▁اخد": 2691, "▁لأنها": 2692, "صلح": 2693, "طاع": 2694, "▁فبي": 2695, "▁سام": 2696, "قتل": 2697, "▁الأمريكي": 2698, "كبر": 2699, "▁حلقة": 2700, "▁ساب": 2701, "▁بالد": 2702, "▁نادي": 2703, "▁re": 2704, "▁الهدف": 2705, "▁الثلاث": 2706, "▁البنت": 2707, "ro": 2708, "▁قلبي": 2709, "▁ماما": 2710, "▁جنب": 2711, "▁تبدأ": 2712, "ظروف": 2713, "اا": 2714, "تني": 2715, "▁إبراهيم": 2716, "▁كلم": 2717, "▁الوز": 2718, "▁بعيد": 2719, "▁قائ": 2720, "▁ثاني": 2721, "▁للناس": 2722, "مود": 2723, "▁فرق": 2724, "▁19": 2725, "عودية": 2726, "▁البح": 2727, "باط": 2728, "ياد": 2729, "▁النقطة": 2730, "▁اختي": 2731, "▁موسى": 2732, "▁المرة": 2733, "▁ضمن": 2734, "▁كلا": 2735, "واية": 2736, "▁لمن": 2737, "▁حكي": 2738, "▁لقيت": 2739, "▁لبنان": 2740, "روج": 2741, "▁بأنه": 2742, "▁انته": 2743, "طلاق": 2744, "طيك": 2745, "لطة": 2746, "▁واب": 2747, "▁صارت": 2748, "▁النظام": 2749, "▁مرض": 2750, "▁T": 2751, "▁لط": 2752, "▁بعمل": 2753, "▁نقدر": 2754, "▁اللاعب": 2755, "صرف": 2756, "▁هكذا": 2757, "رائيلي": 2758, "▁يقوم": 2759, "ثبت": 2760, "▁توف": 2761, "▁شبه": 2762, "▁وظ": 2763, "▁أهلا": 2764, "▁الاقتص": 2765, "رحلة": 2766, "▁دق": 2767, "▁is": 2768, "▁يتكلم": 2769, "▁يرجع": 2770, "▁أرض": 2771, "▁ترا": 2772, "ولات": 2773, "▁للق": 2774, "▁7": 2775, "▁بالط": 2776, "▁الشركة": 2777, "▁ألا": 2778, "اركة": 2779, "مهور": 2780, "▁وتس": 2781, "▁الارض": 2782, "▁حياتي": 2783, "ضم": 2784, "▁ويع": 2785, "وروبا": 2786, "▁حاج": 2787, "زوج": 2788, "▁مشت": 2789, "▁الفلس": 2790, "▁رسالة": 2791, "▁اكبر": 2792, "▁رؤ": 2793, "▁سبعة": 2794, "▁ساعات": 2795, "▁وكذا": 2796, "▁السيد": 2797, "▁ايضا": 2798, "▁وحتى": 2799, "▁وقتها": 2800, "جار": 2801, "ظمة": 2802, "▁الإير": 2803, "▁للك": 2804, "et": 2805, "ستخدم": 2806, "▁طبيعي": 2807, "▁فضل": 2808, "▁عرفت": 2809, "▁الشخصية": 2810, "كثر": 2811, "ماغ": 2812, "▁نتي": 2813, "جاوز": 2814, "▁بيجي": 2815, "ركب": 2816, "هاد": 2817, "▁هيا": 2818, "▁فرح": 2819, "ريس": 2820, "▁الوضع": 2821, "ساب": 2822, "طيني": 2823, "▁وكيف": 2824, "سى": 2825, "هرب": 2826, "▁ألم": 2827, "▁تاخد": 2828, "▁بيس": 2829, "▁الفرق": 2830, "▁يخرج": 2831, "اتب": 2832, "▁لنفس": 2833, "▁بينما": 2834, "▁القانون": 2835, "سبب": 2836, "شار": 2837, "▁حر": 2838, "▁إنك": 2839, "▁فلس": 2840, "▁واض": 2841, "جية": 2842, "▁للج": 2843, "▁زيادة": 2844, "▁الجديد": 2845, "▁موقف": 2846, "سكرية": 2847, "▁اوكي": 2848, "▁اهم": 2849, "▁إيش": 2850, "▁وكذلك": 2851, "▁البع": 2852, "▁الشغل": 2853, "معة": 2854, "▁الأيام": 2855, "مم": 2856, "▁فمن": 2857, "▁نها": 2858, "يين": 2859, "ديدا": 2860, "▁الكب": 2861, "▁بالا": 2862, "▁إخ": 2863, "▁بالضبط": 2864, "فاوض": 2865, "▁مالك": 2866, "وسط": 2867, "▁تخيل": 2868, "▁مشروع": 2869, "▁المدرسة": 2870, "▁الاسم": 2871, "▁الحال": 2872, "▁سين": 2873, "▁فح": 2874, "▁الكرة": 2875, "مشي": 2876, "عرض": 2877, "ياً": 2878, "▁بف": 2879, "▁تؤ": 2880, "▁مسؤ": 2881, "دل": 2882, "▁وكأن": 2883, "طال": 2884, "▁شيخ": 2885, "اطر": 2886, "▁بوا": 2887, "▁شه": 2888, "بيق": 2889, "▁سبيل": 2890, "▁شعر": 2891, "ابتن": 2892, "▁جميعا": 2893, "▁فلو": 2894, "▁الفريق": 2895, "▁جيت": 2896, "▁طلعت": 2897, "فعول": 2898, "ونس": 2899, "فية": 2900, "▁ار": 2901, "▁المصرية": 2902, "▁ياخد": 2903, "وهم": 2904, "▁المسلسل": 2905, "كاء": 2906, "▁رجال": 2907, "▁بكرة": 2908, "▁صلاة": 2909, "▁قدم": 2910, "▁لاحظ": 2911, "▁العلاقة": 2912, "▁يوسف": 2913, "▁يجيب": 2914, "ريض": 2915, "▁القي": 2916, "▁سعيد": 2917, "▁هيبقى": 2918, "▁الزم": 2919, "ولين": 2920, "▁الريا": 2921, "▁مجال": 2922, "▁اقت": 2923, "خير": 2924, "دوا": 2925, "▁الرو": 2926, "انات": 2927, "▁انتي": 2928, "▁بجد": 2929, "▁السوق": 2930, "▁أحيانا": 2931, "▁فريق": 2932, "سس": 2933, "▁بكر": 2934, "▁خلف": 2935, "▁تقدم": 2936, "▁كاملة": 2937, "ضرة": 2938, "عدة": 2939, "هلا": 2940, "..": 2941, "بيه": 2942, "▁زين": 2943, "▁مباراة": 2944, "▁بتاعه": 2945, "▁جو": 2946, "▁الدم": 2947, "حول": 2948, "ريط": 2949, "ناسب": 2950, "▁تبارك": 2951, "▁نظام": 2952, "▁بعي": 2953, "▁S": 2954, "منع": 2955, "▁فبت": 2956, "▁تكن": 2957, "▁بينهم": 2958, "▁شاي": 2959, "▁مرحبا": 2960, "▁الاص": 2961, "▁الموسم": 2962, "▁وتت": 2963, "▁فينا": 2964, "▁الحكومة": 2965, "▁المحا": 2966, "▁الفلوس": 2967, "▁الدرا": 2968, "▁يحتاج": 2969, "▁العي": 2970, "▁يستطيع": 2971, "▁لص": 2972, "▁معروف": 2973, "▁بشي": 2974, "▁حسنا": 2975, "▁الحل": 2976, "▁الشعر": 2977, "▁خاص": 2978, "▁ونحن": 2979, "▁أط": 2980, "▁نتيجة": 2981, "▁احسن": 2982, "▁الطب": 2983, "خيل": 2984, "▁راجل": 2985, "▁تيجي": 2986, "▁حتة": 2987, "▁اعرف": 2988, "فى": 2989, "▁لف": 2990, "▁الاع": 2991, "َّ": 2992, "املة": 2993, "▁الشارع": 2994, "▁الإع": 2995, "▁مركز": 2996, "▁عزي": 2997, "▁أمريكا": 2998, "▁الكم": 2999, "▁ظهر": 3000, "▁بتبقى": 3001, "أخذ": 3002, "▁بدك": 3003, "لنا": 3004, "حاد": 3005, "اشر": 3006, "▁عص": 3007, "▁الخاصة": 3008, "▁احمد": 3009, "▁رايح": 3010, "▁فانت": 3011, "▁سمعت": 3012, "▁10": 3013, "▁الحين": 3014, "▁مرات": 3015, "▁تقوم": 3016, "▁12": 3017, "▁قوية": 3018, "▁يحدث": 3019, "▁ناحية": 3020, "امع": 3021, "▁سوريا": 3022, "كسر": 3023, "▁وسي": 3024, "▁الولايات": 3025, "▁قا": 3026, "▁حياته": 3027, "▁افت": 3028, "▁التش": 3029, "▁9": 3030, "▁نكون": 3031, "ادل": 3032, "الد": 3033, "ناعة": 3034, "ربت": 3035, "▁القوة": 3036, "ورت": 3037, "▁السر": 3038, "▁الرسول": 3039, "▁فرا": 3040, "▁إنت": 3041, "حيل": 3042, "▁باسم": 3043, "▁يل": 3044, "▁تفضل": 3045, "رر": 3046, "▁مها": 3047, "▁سيدي": 3048, "▁ونص": 3049, "▁الصوت": 3050, "▁الجانب": 3051, "▁بتن": 3052, "▁ريال": 3053, "▁سبع": 3054, "▁كار": 3055, "▁بعده": 3056, "شفى": 3057, "▁اليه": 3058, "▁الصد": 3059, "ذاب": 3060, "صال": 3061, "▁النظر": 3062, "قية": 3063, "▁الخارج": 3064, "فوا": 3065, "▁الحج": 3066, "حم": 3067, "▁بلد": 3068, "كنت": 3069, "ئات": 3070, "وث": 3071, "▁قرار": 3072, "▁إني": 3073, "▁بيش": 3074, "▁حصلت": 3075, "ليس": 3076, "▁أربعة": 3077, "▁وبن": 3078, "▁مسألة": 3079, "▁يبدو": 3080, "▁برنامج": 3081, "▁معت": 3082, "▁ميت": 3083, "▁الخلي": 3084, "▁صعبة": 3085, "▁مثلاً": 3086, "▁إما": 3087, "▁أعلم": 3088, "متع": 3089, "كره": 3090, "▁عط": 3091, "▁انهم": 3092, "▁فلان": 3093, "▁تحب": 3094, "▁تنا": 3095, "▁بتع": 3096, "▁معكم": 3097, "ديل": 3098, "فلة": 3099, "▁آمن": 3100, "رين": 3101, "▁سلم": 3102, "▁قضية": 3103, "▁منتخب": 3104, "▁العراق": 3105, "خط": 3106, "▁غريب": 3107, "▁الدفاع": 3108, "▁وحد": 3109, "▁تسم": 3110, "▁سيكون": 3111, "▁جمال": 3112, "▁يقولون": 3113, "ستاذ": 3114, "جهة": 3115, "▁بيق": 3116, "▁تتكلم": 3117, "▁يجعل": 3118, "واني": 3119, "▁يلعب": 3120, "نتيجة": 3121, "حمل": 3122, "▁أننا": 3123, "▁وله": 3124, "▁فجأة": 3125, "اتك": 3126, "▁تذكر": 3127, "▁المرحلة": 3128, "ضحك": 3129, "▁كس": 3130, "▁يسمع": 3131, "▁قريب": 3132, "▁أصبح": 3133, "▁للأسف": 3134, "▁خطوة": 3135, "▁يعيش": 3136, "▁هتلاقي": 3137, "▁تعب": 3138, "▁حركة": 3139, "▁المعلومات": 3140, "قته": 3141, "▁النوع": 3142, "▁كريم": 3143, "خش": 3144, "▁الحكم": 3145, "هة": 3146, "▁حساب": 3147, "▁مظ": 3148, "▁بسيط": 3149, "▁أصحاب": 3150, "وووو": 3151, "am": 3152, "▁وأيضا": 3153, "يس": 3154, "▁الفق": 3155, "حبه": 3156, "▁الأص": 3157, "▁يلي": 3158, "▁وبعدها": 3159, "▁المر": 3160, "تماعي": 3161, "▁تعالوا": 3162, "▁ورد": 3163, "▁تجد": 3164, "▁بعرف": 3165, "▁مقد": 3166, "غى": 3167, "ريعة": 3168, "▁العقل": 3169, "▁عادة": 3170, "▁مجلس": 3171, "▁تلاقي": 3172, "بحت": 3173, "▁توا": 3174, "▁النادي": 3175, "▁معرف": 3176, "▁المحت": 3177, "▁خصوص": 3178, "▁استخدام": 3179, "▁الآية": 3180, "▁نه": 3181, "▁مثال": 3182, "مرار": 3183, "▁الدور": 3184, "▁الجديدة": 3185, "▁C": 3186, "▁سيب": 3187, "▁الني": 3188, "▁رأس": 3189, "ائية": 3190, "عون": 3191, "▁التط": 3192, "▁سير": 3193, "▁زائد": 3194, "▁السعودية": 3195, "اة": 3196, "هه": 3197, "▁اربع": 3198, "نون": 3199, "▁جانب": 3200, "▁الجميع": 3201, "▁والث": 3202, "▁بده": 3203, "▁201": 3204, "▁we": 3205, "حصل": 3206, "▁تسمع": 3207, "▁15": 3208, "▁عيني": 3209, "▁بيك": 3210, "تة": 3211, "روك": 3212, "ستر": 3213, "▁قتل": 3214, "▁عمره": 3215, "▁الاعت": 3216, "▁سك": 3217, "راضي": 3218, "لبس": 3219, "▁الها": 3220, "▁المك": 3221, "ay": 3222, "بيب": 3223, "▁بالزبط": 3224, "▁ينزل": 3225, "▁وقع": 3226, "خلق": 3227, "فز": 3228, "فعال": 3229, "ارف": 3230, "im": 3231, "ذج": 3232, "مون": 3233, "▁صدق": 3234, "▁الإخ": 3235, "▁سهل": 3236, "▁ترجع": 3237, "وته": 3238, "▁الاح": 3239, "▁عج": 3240, "▁القص": 3241, "▁تعد": 3242, "خصص": 3243, "▁عما": 3244, "▁أعمل": 3245, "▁الطاقة": 3246, "▁تجيب": 3247, "قتها": 3248, "ver": 3249, "▁إذ": 3250, "▁الصين": 3251, "يره": 3252, "▁كتيرة": 3253, "▁تجي": 3254, "خلية": 3255, "▁بالص": 3256, "▁أل": 3257, "▁التك": 3258, "ائج": 3259, "▁مهما": 3260, "▁والناس": 3261, "▁انما": 3262, "▁بالج": 3263, "▁الولد": 3264, "▁الليلة": 3265, "▁صاد": 3266, "مارات": 3267, "▁تحتاج": 3268, "▁بهم": 3269, "ناش": 3270, "▁الاخت": 3271, "▁التد": 3272, "▁موقع": 3273, "دافع": 3274, "▁الحقيقي": 3275, "وعي": 3276, "ويا": 3277, "▁يرى": 3278, "id": 3279, "▁وهكذا": 3280, "ow": 3281, "▁أرد": 3282, "ًا": 3283, "فكير": 3284, "▁الهم": 3285, "▁صالح": 3286, "▁لهذه": 3287, "▁غزة": 3288, "▁توصل": 3289, "دون": 3290, "علان": 3291, "▁متى": 3292, "ot": 3293, "▁والط": 3294, "▁بالفعل": 3295, "ورك": 3296, "▁لأي": 3297, "ation": 3298, "▁اض": 3299, "▁اكتب": 3300, "▁الحا": 3301, "▁درس": 3302, "تمام": 3303, "مرة": 3304, "▁غريبة": 3305, "ايز": 3306, "▁الزي": 3307, "▁اكثر": 3308, "▁202": 3309, "▁قليل": 3310, "▁وصلنا": 3311, "▁بتس": 3312, "ئل": 3313, "ضيق": 3314, "▁وقلت": 3315, "▁صباح": 3316, "▁تفهم": 3317, "هاب": 3318, "فذ": 3319, "▁الاجتماع": 3320, "زيد": 3321, "واد": 3322, "▁ادي": 3323, "▁المسجد": 3324, "▁دفع": 3325, "▁قلوب": 3326, "▁اتكلم": 3327, "▁اط": 3328, "حدد": 3329, "▁جاية": 3330, "▁مرف": 3331, "▁اللبنا": 3332, "لل": 3333, "▁فار": 3334, "▁الال": 3335, "دد": 3336, "فيذ": 3337, "▁الأخيرة": 3338, "باك": 3339, "ظف": 3340, "وخ": 3341, "▁فبالتالي": 3342, "▁صلاح": 3343, "▁الوحيد": 3344, "▁شب": 3345, "ايد": 3346, "▁زاد": 3347, "▁الأسا": 3348, "▁المقد": 3349, "▁إليك": 3350, "▁الإيمان": 3351, "▁بقي": 3352, "▁منص": 3353, "▁جسم": 3354, "▁معانا": 3355, "▁أشياء": 3356, "▁تأتي": 3357, "▁ربك": 3358, "▁الترك": 3359, "▁يوصل": 3360, "فار": 3361, "يارات": 3362, "▁معناها": 3363, "▁قسم": 3364, "▁كيلو": 3365, "▁كأنه": 3366, "زية": 3367, "▁ظل": 3368, "ادات": 3369, "▁الكبيرة": 3370, "▁خطأ": 3371, "وذ": 3372, "▁امام": 3373, "▁لقي": 3374, "اتل": 3375, "▁لابد": 3376, "▁تحط": 3377, "▁تحدث": 3378, "صبح": 3379, "▁هست": 3380, "▁الكون": 3381, "▁أر": 3382, "زال": 3383, "ابعة": 3384, "وفر": 3385, "▁ويد": 3386, "▁وفع": 3387, "وبر": 3388, "▁ی": 3389, "كرر": 3390, "▁رحمة": 3391, "هوة": 3392, "▁يعتبر": 3393, "▁بكت": 3394, "وجود": 3395, "ركوا": 3396, "▁العملية": 3397, "▁افضل": 3398, "▁عظيم": 3399, "نم": 3400, "▁يمشي": 3401, "غرب": 3402, "▁مئة": 3403, "▁بقولك": 3404, "▁جعل": 3405, "بيا": 3406, "ce": 3407, "▁الخد": 3408, "▁الدرس": 3409, "▁الموقف": 3410, "▁بره": 3411, "راً": 3412, "▁حاليا": 3413, "▁الرجال": 3414, "بتدي": 3415, "▁الخام": 3416, "▁الخبر": 3417, "▁الزوج": 3418, "▁انتم": 3419, "ئك": 3420, "▁لغاية": 3421, "واري": 3422, "▁بتاعي": 3423, "▁200": 3424, "طفى": 3425, "▁سلي": 3426, "▁وحدة": 3427, "▁كرة": 3428, "▁جع": 3429, "▁الإمام": 3430, "▁المهمة": 3431, "▁قطع": 3432, "▁المشروع": 3433, "▁ايوه": 3434, "رحم": 3435, "▁وام": 3436, "مث": 3437, "▁البعض": 3438, "▁الخوف": 3439, "ناعي": 3440, "▁برو": 3441, "حمد": 3442, "▁القضية": 3443, "لطان": 3444, "▁كويسة": 3445, "▁المض": 3446, "▁قانون": 3447, "▁محمود": 3448, "▁تض": 3449, "حكم": 3450, "▁يأخذ": 3451, "▁اخذ": 3452, "▁أعط": 3453, "لبية": 3454, "زام": 3455, "كية": 3456, "▁الانسان": 3457, "ذات": 3458, "ظيمة": 3459, "▁خالد": 3460, "▁الخاص": 3461, "أثر": 3462, "▁ممن": 3463, "▁مسلسل": 3464, "▁بتكلم": 3465, "جلي": 3466, "▁الأه": 3467, "▁نسبة": 3468, "▁خلا": 3469, "▁العامة": 3470, "▁تخرج": 3471, "▁طا": 3472, "ديه": 3473, "اند": 3474, "▁واخد": 3475, "قش": 3476, "▁مكة": 3477, "▁الموجودة": 3478, "▁شعب": 3479, "▁الوط": 3480, "▁بتاعته": 3481, "هاش": 3482, "▁مصدر": 3483, "▁طويل": 3484, "قاء": 3485, "ريش": 3486, "▁الشرطة": 3487, "▁that": 3488, "▁بالب": 3489, "ورات": 3490, "▁اث": 3491, "▁البنات": 3492, "غفر": 3493, "أتي": 3494, "▁بث": 3495, "سكري": 3496, "▁ضغط": 3497, "▁كلما": 3498, "ايق": 3499, "▁be": 3500, "▁عالي": 3501, "▁عنك": 3502, "▁المستوى": 3503, "▁تلت": 3504, "▁موت": 3505, "عمله": 3506, "▁عدة": 3507, "▁بيحب": 3508, "▁بلغ": 3509, "▁وزي": 3510, "▁شغال": 3511, "لاحظ": 3512, "اعات": 3513, "▁هيكون": 3514, "▁بأي": 3515, "▁تسعة": 3516, "▁ونت": 3517, "▁بقت": 3518, "▁بشر": 3519, "▁كبر": 3520, "▁الشهر": 3521, "▁بنتي": 3522, "▁واضحة": 3523, "داع": 3524, "▁حقيقي": 3525, "جيل": 3526, "داً": 3527, "ليب": 3528, "▁بتاعك": 3529, "▁إليها": 3530, "وفي": 3531, "▁المعنى": 3532, "نسي": 3533, "▁الخي": 3534, "▁كور": 3535, "▁الآخرين": 3536, "ید": 3537, "▁الده": 3538, "ad": 3539, "▁الفصل": 3540, "▁المسلم": 3541, "st": 3542, "▁التواصل": 3543, "▁أصدق": 3544, "▁عربية": 3545, "▁العلماء": 3546, "▁الحلو": 3547, "▁ينفعش": 3548, "جين": 3549, "اعي": 3550, "ut": 3551, "▁التو": 3552, "▁يحت": 3553, "▁استاذ": 3554, "ليفون": 3555, "لتها": 3556, "▁عجب": 3557, "توا": 3558, "ريقيا": 3559, "▁نروح": 3560, "▁تستطيع": 3561, "▁القرار": 3562, "لوه": 3563, "▁جيب": 3564, "▁الصبح": 3565, "▁النوم": 3566, "▁الزمن": 3567, "ربط": 3568, "▁الضغط": 3569, "مائة": 3570, "مسين": 3571, "▁زمن": 3572, "▁تكتب": 3573, "▁أنفس": 3574, "واعد": 3575, "وبية": 3576, "ونية": 3577, "بيعية": 3578, "رفض": 3579, "▁اوي": 3580, "▁بتد": 3581, "▁حزب": 3582, "جمع": 3583, "ساعدة": 3584, "▁باقي": 3585, "▁العمر": 3586, "ائلة": 3587, "▁الروح": 3588, "▁الزمالك": 3589, "نسا": 3590, "▁بتش": 3591, "كرم": 3592, "▁ايام": 3593, "▁أعلى": 3594, "▁يصل": 3595, "سام": 3596, "▁واش": 3597, "▁الاتنين": 3598, "▁الشه": 3599, "حظات": 3600, "▁المقا": 3601, "ندوق": 3602, "▁سوي": 3603, "▁الصحابة": 3604, "▁أولاد": 3605, "خصوص": 3606, "▁رسم": 3607, "▁صاح": 3608, "▁مبت": 3609, "▁المؤمنين": 3610, "▁الفا": 3611, "▁مقا": 3612, "▁اللقاء": 3613, "▁بيب": 3614, "ميم": 3615, "▁تخلي": 3616, "▁السيارة": 3617, "▁حج": 3618, "▁دعم": 3619, "▁هتبقى": 3620, "▁السما": 3621, "صلة": 3622, "لحة": 3623, "▁القيامة": 3624, "▁ومر": 3625, "▁وممكن": 3626, "تيب": 3627, "وتيوب": 3628, "▁بحيث": 3629, "ولاد": 3630, "▁الجامعة": 3631, "▁ناقص": 3632, "▁عالية": 3633, "▁غيره": 3634, "▁اولا": 3635, "▁محدش": 3636, "▁علامة": 3637, "▁كابتن": 3638, "▁وجد": 3639, "▁بخير": 3640, "لقات": 3641, "▁وإحنا": 3642, "▁وَ": 3643, "نها": 3644, "▁أنواع": 3645, "▁الأمن": 3646, "▁فخ": 3647, "أت": 3648, "▁قلبه": 3649, "▁حقا": 3650, "▁آدم": 3651, "▁وحي": 3652, "▁للو": 3653, "▁تجربة": 3654, "▁المنزل": 3655, "▁نط": 3656, "▁قولي": 3657, "▁نرجع": 3658, "▁مسلم": 3659, "بتها": 3660, "▁خطر": 3661, "▁الشرق": 3662, "▁البرنامج": 3663, "▁ربع": 3664, "▁أز": 3665, "كتشف": 3666, "▁العين": 3667, "الج": 3668, "▁لكنها": 3669, "▁الأخرى": 3670, "▁وصف": 3671, "روط": 3672, "▁والمع": 3673, "▁عنهم": 3674, "افظة": 3675, "▁الإسرائيلي": 3676, "▁اوه": 3677, "▁فأنت": 3678, "▁روس": 3679, "▁خش": 3680, "ائدة": 3681, "مرين": 3682, "▁حفظ": 3683, "▁نقص": 3684, "▁معظم": 3685, "▁التر": 3686, "▁وإنما": 3687, "▁المسألة": 3688, "▁جات": 3689, "▁بقيت": 3690, "ياك": 3691, "▁للب": 3692, "▁it": 3693, "▁خايف": 3694, "افي": 3695, "▁طرف": 3696, "▁ابدا": 3697, "بيض": 3698, "▁خوف": 3699, "▁دماغ": 3700, "▁مان": 3701, "وضة": 3702, "▁حرام": 3703, "ميلة": 3704, "▁منكم": 3705, "راتكم": 3706, "▁وكده": 3707, "ظل": 3708, "▁وعلا": 3709, "▁لين": 3710, "▁السين": 3711, "▁موجودين": 3712, "مانة": 3713, "▁سوا": 3714, "▁الصحة": 3715, "▁فده": 3716, "▁مبس": 3717, "▁المفت": 3718, "▁الجهاز": 3719, "ستان": 3720, "ألك": 3721, "▁المثال": 3722, "▁حطي": 3723, "اهدين": 3724, "▁النف": 3725, "▁الطرف": 3726, "▁وتق": 3727, "▁ناخد": 3728, "وطة": 3729, "▁البا": 3730, "▁جر": 3731, "▁والذي": 3732, "ويات": 3733, "▁وقالت": 3734, "▁عربي": 3735, "▁الاش": 3736, "▁هادي": 3737, "▁تحس": 3738, "▁بالف": 3739, "▁فاكر": 3740, "▁واح": 3741, "▁اكس": 3742, "▁العبا": 3743, "وام": 3744, "▁أنتم": 3745, "اوية": 3746, "▁غادي": 3747, "▁st": 3748, "▁الجد": 3749, "▁بتعرف": 3750, "▁تقد": 3751, "▁وتن": 3752, "▁ذهب": 3753, "▁ملف": 3754, "▁واقع": 3755, "▁ساعد": 3756, "▁وزير": 3757, "شى": 3758, "▁سهلة": 3759, "حقق": 3760, "▁أشوف": 3761, "▁الجسم": 3762, "▁الإيراني": 3763, "▁وإلى": 3764, "آآ": 3765, "الها": 3766, "▁الاف": 3767, "▁واقف": 3768, "ig": 3769, "▁تحمل": 3770, "▁إح": 3771, "▁الجب": 3772, "▁يعطي": 3773, "أخر": 3774, "▁يشعر": 3775, "اجر": 3776, "▁إع": 3777, "▁100": 3778, "ly": 3779, "رضى": 3780, "آخر": 3781, "راح": 3782, "▁الفل": 3783, "▁نصف": 3784, "▁بحاجة": 3785, "▁بنقول": 3786, "▁ماء": 3787, "▁المسا": 3788, "▁أعطي": 3789, "▁يعد": 3790, "▁وذلك": 3791, "▁حاضر": 3792, "▁وزارة": 3793, "▁الدعاء": 3794, "شد": 3795, "▁الصغيرة": 3796, "▁معرفة": 3797, "ديات": 3798, "▁حدود": 3799, "▁ويس": 3800, "▁فالم": 3801, "▁قناة": 3802, "▁مستحيل": 3803, "▁وأخ": 3804, "▁تمشي": 3805, "▁كر": 3806, "قام": 3807, "▁يو": 3808, "▁السف": 3809, "▁المسيح": 3810, "▁رأيك": 3811, "▁متر": 3812, "▁عمري": 3813, "▁رفض": 3814, "▁هوا": 3815, "▁شديد": 3816, "▁الأف": 3817, "▁لأنك": 3818, "ديها": 3819, "▁أيضاً": 3820, "▁يشتغل": 3821, "▁شاب": 3822, "عتبر": 3823, "▁أكل": 3824, "▁يسأل": 3825, "ارد": 3826, "▁الكلمات": 3827, "هج": 3828, "▁18": 3829, "▁تأخذ": 3830, "زاء": 3831, "▁طي": 3832, "▁هيت": 3833, "▁يظهر": 3834, "▁بتاعة": 3835, "هب": 3836, "یم": 3837, "ليق": 3838, "هادة": 3839, "▁أنني": 3840, "قيل": 3841, "▁العصر": 3842, "▁الشمال": 3843, "بياء": 3844, "▁يحاول": 3845, "▁الرابع": 3846, "عاون": 3847, "▁النساء": 3848, "▁بتحب": 3849, "داة": 3850, "▁اهلا": 3851, "دينا": 3852, "▁سل": 3853, "▁اشوف": 3854, "▁چ": 3855, "▁معلومات": 3856, "▁اللو": 3857, "▁قلبك": 3858, "رجات": 3859, "▁تمت": 3860, "▁غال": 3861, "▁الوحي": 3862, "خم": 3863, "مله": 3864, "▁لغة": 3865, "طح": 3866, "▁بالليل": 3867, "▁معلش": 3868, "▁المستقبل": 3869, "وره": 3870, "▁فش": 3871, "▁مبني": 3872, "روني": 3873, "▁on": 3874, "▁يساعد": 3875, "▁مفه": 3876, "▁يقولك": 3877, "▁خلو": 3878, "▁الأخير": 3879, "راجع": 3880, "▁لدرجة": 3881, "▁ضرو": 3882, "موع": 3883, "▁أصبحت": 3884, "ارح": 3885, "▁لايك": 3886, "▁الأطفال": 3887, "▁بيست": 3888, "▁الامر": 3889, "انين": 3890, "▁اقل": 3891, "عاد": 3892, "ياس": 3893, "نز": 3894, "اره": 3895, "▁رأيت": 3896, "▁لديه": 3897, "يجي": 3898, "▁عزيزي": 3899, "▁جهاز": 3900, "▁نقل": 3901, "▁الأز": 3902, "▁ننت": 3903, "▁ورس": 3904, "▁30": 3905, "▁الرئي": 3906, "▁زيت": 3907, "ملكة": 3908, "▁اطلع": 3909, "واز": 3910, "▁قيم": 3911, "ولت": 3912, "▁أصل": 3913, "▁الملف": 3914, "▁حلم": 3915, "▁يض": 3916, "كب": 3917, "اتها": 3918, "يته": 3919, "شوا": 3920, "▁بينا": 3921, "صلحة": 3922, "▁طالع": 3923, "▁توقف": 3924, "▁العلاقات": 3925, "▁تعيش": 3926, "▁الإجابة": 3927, "▁بالشكل": 3928, "نوا": 3929, "▁الاجتماعي": 3930, "▁والاست": 3931, "▁ترد": 3932, "رقام": 3933, "▁عبدالله": 3934, "▁يفعل": 3935, "▁التفكير": 3936, "▁بعضهم": 3937, "ليقات": 3938, "▁شهور": 3939, "un": 3940, "▁حاب": 3941, "▁للص": 3942, "▁الصغير": 3943, "▁النجاح": 3944, "▁رحمه": 3945, "▁الاولى": 3946, "▁استث": 3947, "▁الصالح": 3948, "▁جاءت": 3949, "▁بياخد": 3950, "▁يعود": 3951, "ضى": 3952, "غلط": 3953, "▁لديك": 3954, "▁خفي": 3955, "▁البد": 3956, "▁البحث": 3957, "موذج": 3958, "▁ينب": 3959, "▁كسر": 3960, "▁والتي": 3961, "▁الثالثة": 3962, "▁سنت": 3963, "▁رغ": 3964, "▁يكتب": 3965, "▁قدي": 3966, "ضعف": 3967, "▁سيف": 3968, "▁هنت": 3969, "يرو": 3970, "▁دينا": 3971, "بوط": 3972, "▁بنس": 3973, "▁المادة": 3974, "▁المجال": 3975, "▁معناه": 3976, "ليها": 3977, "▁بالعكس": 3978, "▁كاس": 3979, "▁فاعل": 3980, "▁ريا": 3981, "▁النتيجة": 3982, "وحة": 3983, "▁القت": 3984, "▁جيدة": 3985, "▁عيد": 3986, "▁الكام": 3987, "▁ينا": 3988, "▁حن": 3989, "ساطة": 3990, "▁ليك": 3991, "▁بتاعنا": 3992, "ch": 3993, "▁مفعول": 3994, "قافة": 3995, "قتك": 3996, "▁جبت": 3997, "▁الأج": 3998, "▁اللعبة": 3999, "عاية": 4000, "لتك": 4001, "فاهم": 4002, "▁طيبة": 4003, "▁نعمة": 4004, "▁الرسالة": 4005, "▁فهنا": 4006, "▁يقدم": 4007, "▁للف": 4008, "▁شد": 4009, "▁التعليم": 4010, "▁خس": 4011, "▁تغيير": 4012, "▁قدرت": 4013, "▁نجيب": 4014, "ديق": 4015, "ذين": 4016, "▁وعي": 4017, "▁كف": 4018, "▁خمسين": 4019, "▁يتعلق": 4020, "▁الحركة": 4021, "▁واج": 4022, "يمين": 4023, "▁تعود": 4024, "▁تنزل": 4025, "▁قعد": 4026, "طبق": 4027, "▁أبا": 4028, "▁المعا": 4029, "بعت": 4030, "▁ذاك": 4031, "▁السود": 4032, "▁وثلاث": 4033, "قرار": 4034, "▁للغ": 4035, "▁القا": 4036, "▁فط": 4037, "▁تفكر": 4038, "▁المها": 4039, "▁منع": 4040, "▁وكنت": 4041, "▁كد": 4042, "▁جام": 4043, "▁الجو": 4044, "▁بدنا": 4045, "▁الألم": 4046, "▁11": 4047, "▁الاهلي": 4048, "▁الصباح": 4049, "▁wh": 4050, "se": 4051, "▁رجعت": 4052, "▁وهل": 4053, "▁تقولي": 4054, "▁بري": 4055, "▁الشا": 4056, "▁يكونوا": 4057, "▁والي": 4058, "▁المسؤ": 4059, "▁لاب": 4060, "▁ذه": 4061, "▁شرط": 4062, "حين": 4063, "▁تفس": 4064, "يي": 4065, "▁بيعرف": 4066, "▁ترج": 4067, "▁دليل": 4068, "شق": 4069, "▁الطعام": 4070, "▁قرا": 4071, "▁الشركات": 4072, "▁ره": 4073, "▁الفجر": 4074, "▁قرب": 4075, "جراء": 4076, "▁مخت": 4077, "▁وفعلا": 4078, "▁وأنه": 4079, "ولوجيا": 4080, "▁de": 4081, "▁دو": 4082, "َا": 4083, "▁بذلك": 4084, "▁بيطلع": 4085, "▁واحنا": 4086, "▁سورة": 4087, "انا": 4088, "▁يوما": 4089, "▁يرد": 4090, "▁يفتح": 4091, "▁مننا": 4092, "لسلة": 4093, "▁للط": 4094, "▁العسكرية": 4095, "▁يال": 4096, "▁أكون": 4097, "▁بالي": 4098, "▁المشهد": 4099, "▁عيش": 4100, "▁أوروبا": 4101, "▁المركز": 4102, "▁صديقي": 4103, "▁25": 4104, "▁he": 4105, "▁يقت": 4106, "ايب": 4107, "▁تحقيق": 4108, "ثي": 4109, "▁تستخدم": 4110, "▁باشا": 4111, "▁عض": 4112, "▁مادة": 4113, "شترك": 4114, "ابلة": 4115, "▁ركز": 4116, "خن": 4117, "أي": 4118, "يدك": 4119, "اهدة": 4120, "▁ثالث": 4121, "▁اشتغل": 4122, "هدف": 4123, "▁طاقة": 4124, "▁فاتت": 4125, "▁سعد": 4126, "قطع": 4127, "▁القادمة": 4128, "▁ورج": 4129, "▁أراد": 4130, "▁فد": 4131, "▁القديمة": 4132, "▁فرض": 4133, "▁اقتص": 4134, "▁بيته": 4135, "قوله": 4136, "رون": 4137, "تو": 4138, "▁فلسطين": 4139, "▁السلاح": 4140, "طه": 4141, "▁ومس": 4142, "▁قرأ": 4143, "كال": 4144, "▁ظه": 4145, "▁هين": 4146, "بطة": 4147, "▁يمكنك": 4148, "▁P": 4149, "▁سأل": 4150, "زر": 4151, "باع": 4152, "حته": 4153, "▁امي": 4154, "▁حسين": 4155, "▁مأ": 4156, "سيقى": 4157, "▁البلا": 4158, "ركت": 4159, "▁جوز": 4160, "▁وهناك": 4161, "▁صفر": 4162, "▁مدى": 4163, "وانين": 4164, "▁تشعر": 4165, "▁لست": 4166, "▁الاتفاق": 4167, "▁وجهة": 4168, "شاف": 4169, "▁وو": 4170, "▁ونا": 4171, "il": 4172, "▁الأستاذ": 4173, "▁واخ": 4174, "▁ساعتها": 4175, "ضايا": 4176, "▁يجوز": 4177, "▁الرقم": 4178, "▁الحس": 4179, "▁سو": 4180, "▁مقت": 4181, "▁اختار": 4182, "▁أمور": 4183, "ونك": 4184, "▁والحمد": 4185, "رنت": 4186, "▁لمدة": 4187, "▁العرض": 4188, "حى": 4189, "▁وطلع": 4190, "▁خطة": 4191, "▁وأح": 4192, "▁شمال": 4193, "▁يفهم": 4194, "▁اتفاق": 4195, "واق": 4196, "▁سف": 4197, "▁أعمال": 4198, "▁إش": 4199, "▁روسيا": 4200, "▁الأشخاص": 4201, "▁استف": 4202, "▁ضمير": 4203, "▁والغ": 4204, "▁الشرط": 4205, "▁يذكر": 4206, "▁سكر": 4207, "▁رحت": 4208, "▁كمية": 4209, "▁دير": 4210, "▁D": 4211, "تحان": 4212, "▁مصطفى": 4213, "▁سوى": 4214, "▁التعامل": 4215, "ندس": 4216, "▁الاد": 4217, "▁هيدا": 4218, "▁أثناء": 4219, "▁الأعمال": 4220, "▁يفكر": 4221, "حوا": 4222, "▁اخي": 4223, "نسية": 4224, "▁اسا": 4225, "▁رائع": 4226, "if": 4227, "ارات": 4228, "▁نرى": 4229, "▁يقل": 4230, "يحة": 4231, "▁حبيبتي": 4232, "ليت": 4233, "▁يسمى": 4234, "▁جال": 4235, "▁طفل": 4236, "▁دعوة": 4237, "▁نخ": 4238, "طبخ": 4239, "▁الكبر": 4240, "موت": 4241, "▁اقدر": 4242, "▁طالما": 4243, "▁وبعض": 4244, "▁بيتكلم": 4245, "▁خذ": 4246, "▁وخلاص": 4247, "مكان": 4248, "▁أخبر": 4249, "▁لحتى": 4250, "▁الحم": 4251, "▁خصوصا": 4252, "▁المشاكل": 4253, "دائ": 4254, "▁برد": 4255, "▁المرت": 4256, "▁النها": 4257, "▁الحمام": 4258, "▁ديت": 4259, "▁سعر": 4260, "▁قليلا": 4261, "▁بيقولوا": 4262, "▁زال": 4263, "▁ويمكن": 4264, "▁السياسية": 4265, "▁الحض": 4266, "▁بأس": 4267, "كاة": 4268, "▁العالمية": 4269, "▁الخلا": 4270, "▁B": 4271, "▁ولك": 4272, "▁ثابت": 4273, "▁الداخلية": 4274, "▁بلاد": 4275, "▁هير": 4276, "▁جوج": 4277, "خول": 4278, "ينا": 4279, "▁امريكا": 4280, "ولى": 4281, "▁كنتش": 4282, "▁تشتغل": 4283, "▁for": 4284, "رص": 4285, "▁بقدر": 4286, "ur": 4287, "ؤمن": 4288, "▁الملعب": 4289, "▁بالكامل": 4290, "▁اللعب": 4291, "سيس": 4292, "منا": 4293, "ثمان": 4294, "ol": 4295, "ريل": 4296, "▁تأثير": 4297, "لفزي": 4298, "ربوا": 4299, "▁أثر": 4300, "▁النب": 4301, "▁مالي": 4302, "طط": 4303, "خبار": 4304, "▁وشك": 4305, "▁تفاصيل": 4306, "▁لعبة": 4307, "▁التعب": 4308, "ئكة": 4309, "▁ترت": 4310, "▁السياسي": 4311, "▁البلاد": 4312, "▁الأق": 4313, "▁الشرع": 4314, "▁ففي": 4315, "▁القاهرة": 4316, "لاتة": 4317, "▁نتحدث": 4318, "▁أرى": 4319, "▁الأسئلة": 4320, "▁النفسية": 4321, "▁قوله": 4322, "▁اهل": 4323, "▁الوحدة": 4324, "ادلة": 4325, "▁متع": 4326, "▁يزيد": 4327, "▁بتشوف": 4328, "قلب": 4329, "▁روا": 4330, "▁وهت": 4331, "▁M": 4332, "▁المرا": 4333, "▁التفاصيل": 4334, "برز": 4335, "▁تعرض": 4336, "▁وحده": 4337, "▁القب": 4338, "▁تمر": 4339, "▁إدارة": 4340, "▁للي": 4341, "▁عملنا": 4342, "▁آية": 4343, "▁الهند": 4344, "هن": 4345, "▁انتوا": 4346, "▁وشي": 4347, "▁الطائ": 4348, "▁ندخل": 4349, "▁وتقول": 4350, "▁تعتبر": 4351, "ماه": 4352, "▁جيش": 4353, "▁نزلت": 4354, "▁معد": 4355, "▁غي": 4356, "▁مدير": 4357, "▁منين": 4358, "▁معقول": 4359, "▁الفين": 4360, "▁هتت": 4361, "▁امرأة": 4362, "▁راحت": 4363, "▁السجن": 4364, "▁الأغ": 4365, "▁مزي": 4366, "▁وفق": 4367, "▁الكتب": 4368, "▁عاملة": 4369, "▁والمس": 4370, "▁وعم": 4371, "▁خلصت": 4372, "ريحة": 4373, "▁وكت": 4374, "زو": 4375, "▁ووا": 4376, "▁وعندما": 4377, "احة": 4378, "جري": 4379, "▁هند": 4380, "▁الخب": 4381, "ir": 4382, "وسع": 4383, "▁تفتح": 4384, "فتكر": 4385, "▁تقرأ": 4386, "▁ممتاز": 4387, "ئت": 4388, "▁لون": 4389, "▁دقائق": 4390, "▁انظر": 4391, "▁وتش": 4392, "▁v": 4393, "▁مليار": 4394, "▁بطل": 4395, "▁الوطن": 4396, "▁يقولوا": 4397, "▁تفك": 4398, "▁مساء": 4399, "▁الداخل": 4400, "▁توقع": 4401, "▁الثلاثة": 4402, "▁الحقيقية": 4403, "▁انسان": 4404, "غال": 4405, "▁بيقوله": 4406, "▁حقيقية": 4407, "▁الاسلام": 4408, "ادرة": 4409, "▁كش": 4410, "▁شرح": 4411, "▁النت": 4412, "▁رأى": 4413, "▁يموت": 4414, "▁تساعد": 4415, "▁حمل": 4416, "▁الإن": 4417, "▁التف": 4418, "▁يتحدث": 4419, "▁منظ": 4420, "▁صديق": 4421, "▁معلم": 4422, "▁بنتكلم": 4423, "▁كأ": 4424, "لبة": 4425, "حف": 4426, "▁تفعل": 4427, "▁مجتمع": 4428, "▁أعظم": 4429, "▁عندكم": 4430, "▁الإنس": 4431, "▁مقابل": 4432, "▁الكهرب": 4433, "ونت": 4434, "فاعل": 4435, "▁عكس": 4436, "▁المعل": 4437, "▁النور": 4438, "لوش": 4439, "▁شن": 4440, "▁ha": 4441, "▁ضي": 4442, "وبات": 4443, "▁الحكاية": 4444, "فاظ": 4445, "▁العن": 4446, "▁تجاه": 4447, "▁فص": 4448, "ماد": 4449, "فرة": 4450, "جو": 4451, "▁أختي": 4452, "▁الألف": 4453, "▁ايران": 4454, "▁وسهلا": 4455, "ئين": 4456, "▁فكل": 4457, "▁القرية": 4458, "▁صحة": 4459, "▁ينظر": 4460, "▁أقدر": 4461, "منة": 4462, "جهزة": 4463, "▁الشاعر": 4464, "▁تلق": 4465, "▁حافظ": 4466, "رامج": 4467, "▁السابق": 4468, "▁الاتحاد": 4469, "▁صع": 4470, "▁بدا": 4471, "▁واق": 4472, "▁اخرى": 4473, "▁مرفوع": 4474, "▁بهد": 4475, "▁الوق": 4476, "▁بتتكلم": 4477, "اعدة": 4478, "زان": 4479, "مثل": 4480, "▁لاعب": 4481, "▁الصور": 4482, "وتك": 4483, "▁الهي": 4484, "▁عمله": 4485, "▁اجتماع": 4486, "▁أعد": 4487, "▁حجم": 4488, "▁الطي": 4489, "ينها": 4490, "▁الكرام": 4491, "▁مدرسة": 4492, "رير": 4493, "وضح": 4494, "▁قالك": 4495, "0%": 4496, "ستي": 4497, "▁رحلة": 4498, "▁الأقل": 4499, "▁الأمة": 4500, "فاوضات": 4501, "▁أساس": 4502, "▁نحكي": 4503, "▁تصل": 4504, "▁فرنسا": 4505, "▁حالك": 4506, "▁أقوى": 4507, "ماً": 4508, "▁تحصل": 4509, "▁السابقة": 4510, "مرت": 4511, "ثلة": 4512, "▁يحمل": 4513, "▁صفحة": 4514, "▁con": 4515, "▁نون": 4516, "▁بتاعتنا": 4517, "▁البن": 4518, "ra": 4519, "فات": 4520, "▁ايوة": 4521, "▁إد": 4522, "▁نحط": 4523, "▁عزيز": 4524, "كتورة": 4525, "▁يومين": 4526, "ثار": 4527, "▁الدولي": 4528, "سلم": 4529, "▁14": 4530, "▁بتاعها": 4531, "▁خاط": 4532, "▁تحكي": 4533, "▁المعرف": 4534, "▁بارك": 4535, "▁نقاط": 4536, "▁محتاجة": 4537, "▁يقرأ": 4538, "▁صب": 4539, "▁تقي": 4540, "▁خليك": 4541, "▁نهار": 4542, "ذف": 4543, "▁ساكن": 4544, "يبه": 4545, "ابر": 4546, "▁شاهد": 4547, "عمة": 4548, "ناري": 4549, "▁بول": 4550, "▁الجي": 4551, "هلك": 4552, "▁الجمهور": 4553, "▁تظهر": 4554, "▁فإنه": 4555, "▁كو": 4556, "▁المستشفى": 4557, "▁أمه": 4558, "ويس": 4559, "▁رزق": 4560, "▁سمي": 4561, "▁جامعة": 4562, "▁فاي": 4563, "▁ملح": 4564, "▁وانه": 4565, "▁بعضها": 4566, "▁لفت": 4567, "▁ميديا": 4568, "نوب": 4569, "▁اكل": 4570, "▁الوسط": 4571, "واريخ": 4572, "▁القديم": 4573, "ويد": 4574, "▁يصبح": 4575, "▁قدامك": 4576, "سمة": 4577, "راعة": 4578, "▁خدا": 4579, "أله": 4580, "باه": 4581, "▁اعتقد": 4582, "▁سج": 4583, "▁جيم": 4584, "▁كفر": 4585, "▁الشام": 4586, "▁الغرفة": 4587, "راز": 4588, "▁مدريد": 4589, "▁ويش": 4590, "لوما": 4591, "▁صحيحة": 4592, "ديت": 4593, "▁سلاح": 4594, "طوا": 4595, "▁انف": 4596, "حدى": 4597, "▁ولاد": 4598, "▁مصري": 4599, "شين": 4600, "▁اليهود": 4601, "▁السيدة": 4602, "فعة": 4603, "فاية": 4604, "رجل": 4605, "مانين": 4606, "od": 4607, "▁غالبا": 4608, "▁العص": 4609, "▁الإعلام": 4610, "▁اللاعبين": 4611, "▁ينبغي": 4612, "▁نار": 4613, "حس": 4614, "▁التالي": 4615, "▁يطلب": 4616, "▁حياتنا": 4617, "روة": 4618, "▁ورق": 4619, "▁سوق": 4620, "▁فيني": 4621, "▁الاصط": 4622, "▁سنتين": 4623, "▁ايو": 4624, "▁طرق": 4625, "▁الامتحان": 4626, "▁يمت": 4627, "▁المياه": 4628, "ورس": 4629, "▁تلعب": 4630, "▁ومست": 4631, "ظار": 4632, "امن": 4633, "▁ويست": 4634, "▁الفرا": 4635, "▁قبلها": 4636, "علن": 4637, "▁يرت": 4638, "▁خدت": 4639, "▁بالغ": 4640, "▁استخدم": 4641, "▁ولازم": 4642, "ندم": 4643, "▁كين": 4644, "▁اليمن": 4645, "ئب": 4646, "▁انتهى": 4647, "▁الثقة": 4648, "حان": 4649, "▁أصلاً": 4650, "راته": 4651, "لينا": 4652, "▁الطالب": 4653, "▁الجزائر": 4654, "قض": 4655, "▁ذي": 4656, "شه": 4657, "▁بحث": 4658, "▁تصرف": 4659, "▁معاي": 4660, "باء": 4661, "▁نو": 4662, "▁وها": 4663, "صم": 4664, "انس": 4665, "▁التوا": 4666, "▁انتبه": 4667, "▁بشوف": 4668, "▁شفنا": 4669, "▁السماوات": 4670, "▁لقاء": 4671, "▁فيقول": 4672, "▁ابي": 4673, "▁بتاعتي": 4674, "حه": 4675, "▁البيانات": 4676, "▁بض": 4677, "▁تدري": 4678, "▁الاثنين": 4679, "ge": 4680, "جرد": 4681, "▁ورقة": 4682, "▁شرف": 4683, "رها": 4684, "رجم": 4685, "▁طبع": 4686, "▁وعشان": 4687, "▁الحالي": 4688, "حكي": 4689, "▁جهة": 4690, "جابية": 4691, "▁خاطر": 4692, "▁يهم": 4693, "▁نجد": 4694, "▁أمن": 4695, "▁قليلة": 4696, "▁كلمات": 4697, "▁والكلام": 4698, "نته": 4699, "▁بيروح": 4700, "▁ونس": 4701, "▁الموجود": 4702, "▁الحرف": 4703, "حها": 4704, "خابات": 4705, "رائيلية": 4706, "▁الفاعل": 4707, "▁اقولك": 4708, "هود": 4709, "ارنة": 4710, "▁سعي": 4711, "▁أسبوع": 4712, "ظلم": 4713, "▁دل": 4714, "▁السوري": 4715, "▁بالخ": 4716, "▁آمنوا": 4717, "▁بغير": 4718, "▁الموقع": 4719, "▁معاكم": 4720, "▁فري": 4721, "▁إص": 4722, "ائب": 4723, "▁حقوق": 4724, "▁جنوب": 4725, "▁هعمل": 4726, "▁السكر": 4727, "▁وفيها": 4728, "جابي": 4729, "▁بروح": 4730, "راتيجية": 4731, "▁الصحيح": 4732, "▁ماي": 4733, "▁أيوة": 4734, "▁ارجع": 4735, "▁المرض": 4736, "غار": 4737, "هاء": 4738, "▁اجيب": 4739, "▁بينه": 4740, "▁وراح": 4741, "شية": 4742, "وده": 4743, "معين": 4744, "▁بتاعتك": 4745, "▁العبد": 4746, "▁ستكون": 4747, "▁الحدود": 4748, "▁يقال": 4749, "طيه": 4750, "▁الجمعة": 4751, "مهورية": 4752, "▁يخت": 4753, "▁هنعمل": 4754, "▁ويكون": 4755, "▁فهمت": 4756, "▁سيارة": 4757, "امت": 4758, "▁هرم": 4759, "▁اللون": 4760, "▁الخارجية": 4761, "▁جزي": 4762, "▁وبس": 4763, "▁يدفع": 4764, "▁بمن": 4765, "▁الدار": 4766, "▁عاج": 4767, "▁رؤية": 4768, "▁مفهوم": 4769, "▁مجد": 4770, "▁الطبيعي": 4771, "▁The": 4772, "▁يضرب": 4773, "ندي": 4774, "▁فاط": 4775, "▁مباشر": 4776, "▁قصر": 4777, "▁نكمل": 4778, "▁الجميلة": 4779, "▁صنع": 4780, "▁حضر": 4781, "▁سفر": 4782, "▁الأكل": 4783, "▁الخلق": 4784, "▁كوم": 4785, "▁بست": 4786, "▁أشهر": 4787, "▁العاص": 4788, "▁or": 4789, "ill": 4790, "راجعة": 4791, "ؤية": 4792, "▁بيوت": 4793, "▁وأش": 4794, "▁تسأل": 4795, "▁العديد": 4796, "بني": 4797, "▁بشيء": 4798, "▁البرو": 4799, "▁تمانية": 4800, "est": 4801, "كات": 4802, "هولة": 4803, "▁عصر": 4804, "صلي": 4805, "▁الدولية": 4806, "▁الإح": 4807, "▁البنك": 4808, "▁شكراً": 4809, "ارقة": 4810, "▁الشاب": 4811, "▁الحرارة": 4812, "ولك": 4813, "طات": 4814, "اتم": 4815, "اااا": 4816, "▁فرص": 4817, "▁نجاح": 4818, "▁الدوري": 4819, "▁أرج": 4820, "▁ظلم": 4821, "▁لوحد": 4822, "▁الماضية": 4823, "▁يمين": 4824, "فقة": 4825, "▁دوت": 4826, "▁إنا": 4827, "▁صدر": 4828, "▁العدد": 4829, "▁القدم": 4830, "▁باع": 4831, "وانات": 4832, "▁خدمة": 4833, "▁أتمنى": 4834, "بدل": 4835, "ربنا": 4836, "▁الزواج": 4837, "▁قاعدين": 4838, "▁الجميل": 4839, "▁بكتير": 4840, "▁ايا": 4841, "▁توك": 4842, "انك": 4843, "▁بعت": 4844, "▁زيد": 4845, "▁تلا": 4846, "عه": 4847, "ماكن": 4848, "▁الإسلامية": 4849, "▁واجب": 4850, "▁ليها": 4851, "▁وعرف": 4852, "▁جنا": 4853, "▁الساد": 4854, "▁المغربي": 4855, "سمية": 4856, "▁المناطق": 4857, "ke": 4858, "▁تابع": 4859, "جاج": 4860, "▁لأنهم": 4861, "حمة": 4862, "▁تعالي": 4863, "▁النظ": 4864, "▁محتاجين": 4865, "عية": 4866, "▁فور": 4867, "▁فقلت": 4868, "▁قرر": 4869, "▁ضعيف": 4870, "▁مشاعر": 4871, "عوا": 4872, "▁ولن": 4873, "▁مشك": 4874, "▁بصوت": 4875, "▁يستخدم": 4876, "▁قدرة": 4877, "▁الكن": 4878, "▁الظروف": 4879, "▁ربه": 4880, "▁ماد": 4881, "▁والأرض": 4882, "▁القدرة": 4883, "ليد": 4884, "▁تحول": 4885, "▁وجدت": 4886, "صية": 4887, "موال": 4888, "▁تحديدا": 4889, "وبايل": 4890, "ارض": 4891, "▁عمرك": 4892, "▁هتكون": 4893, "تون": 4894, "غلت": 4895, "▁لخ": 4896, "▁ضعف": 4897, "▁فتحت": 4898, "▁هر": 4899, "▁لوح": 4900, "▁ماتش": 4901, "نيسة": 4902, "غب": 4903, "حيان": 4904, "▁مشي": 4905, "▁حمد": 4906, "▁المجموعة": 4907, "▁مفروض": 4908, "سون": 4909, "▁عامة": 4910, "ذة": 4911, "▁كمل": 4912, "▁ذكرت": 4913, "▁زم": 4914, "▁زع": 4915, "▁طف": 4916, "جاوب": 4917, "▁تصير": 4918, "ul": 4919, "▁الشخصيات": 4920, "▁العزيز": 4921, "▁انس": 4922, "▁ابنه": 4923, "▁تطبيق": 4924, "▁اند": 4925, "فيديو": 4926, "▁شريك": 4927, "▁القول": 4928, "▁فلم": 4929, "▁اروح": 4930, "▁التجربة": 4931, "▁أض": 4932, "▁حسيت": 4933, "▁24": 4934, "▁القيمة": 4935, "بره": 4936, "رور": 4937, "▁الأحداث": 4938, "▁عهد": 4939, "▁تسوي": 4940, "▁هس": 4941, "▁كنتم": 4942, "▁الوحيدة": 4943, "▁طائ": 4944, "▁كاف": 4945, "▁مكتوب": 4946, "▁فلي": 4947, "▁السو": 4948, "▁بيننا": 4949, "▁تجعل": 4950, "▁اختيار": 4951, "▁المالية": 4952, "▁قطاع": 4953, "▁يأكل": 4954, "▁بالمع": 4955, "▁الجماعة": 4956, "▁وفا": 4957, "زون": 4958, "▁الوصول": 4959, "▁وفت": 4960, "لفزيون": 4961, "▁اليوتيوب": 4962, "▁se": 4963, "▁والر": 4964, "▁جون": 4965, "سسات": 4966, "▁شغلة": 4967, "▁غرفة": 4968, "▁ولكنه": 4969, "▁الكبرى": 4970, "ندق": 4971, "▁نسمع": 4972, "▁سريع": 4973, "▁باعت": 4974, "▁زر": 4975, "▁مساحة": 4976, "▁بطولة": 4977, "▁يجد": 4978, "ظة": 4979, "حتك": 4980, "▁وكي": 4981, "▁تحاول": 4982, "▁مبروك": 4983, "لوان": 4984, "▁الكر": 4985, "طم": 4986, "▁أدري": 4987, "▁التم": 4988, "طت": 4989, "جال": 4990, "▁الاستث": 4991, "▁تتعلم": 4992, "▁السلطة": 4993, "▁وقبل": 4994, "▁عظيمة": 4995, "ربه": 4996, "▁جيدا": 4997, "▁العيد": 4998, "▁وليه": 4999, "ماية": 5000, "نجلي": 5001, "▁جواب": 5002, "▁وهن": 5003, "▁فورا": 5004, "▁المحل": 5005, "طى": 5006, "▁ببعض": 5007, "▁معاهم": 5008, "فرق": 5009, "▁ونشوف": 5010, "ومية": 5011, "▁تصبح": 5012, "▁قاله": 5013, "▁الجاية": 5014, "نائ": 5015, "▁عملي": 5016, "▁كبار": 5017, "▁خرجت": 5018, "▁اخوان": 5019, "▁بود": 5020, "▁حسام": 5021, "▁سليم": 5022, "▁النفسي": 5023, "▁قمت": 5024, "كندر": 5025, "▁حوال": 5026, "▁لانها": 5027, "وعة": 5028, "▁المختلف": 5029, "▁بنفسه": 5030, "▁سليمان": 5031, "أكيد": 5032, "▁الخليج": 5033, "ندا": 5034, "▁مؤمن": 5035, "بيد": 5036, "▁فاست": 5037, "▁زوجته": 5038, "▁خاف": 5039, "▁الخمسة": 5040, "قتين": 5041, "▁الصراحة": 5042, "▁قي": 5043, "▁قطر": 5044, "▁ولهذا": 5045, "▁البطولة": 5046, "▁الأو": 5047, "▁گ": 5048, "▁كري": 5049, "▁قطعة": 5050, "▁عايزك": 5051, "▁شكله": 5052, "ماس": 5053, "▁العنا": 5054, "▁،": 5055, "▁المواد": 5056, "▁مسي": 5057, "▁وحش": 5058, "لاك": 5059, "ئن": 5060, "▁كتبت": 5061, "▁اليمين": 5062, "▁نفهم": 5063, "صود": 5064, "▁يرح": 5065, "وأ": 5066, "▁آله": 5067, "▁عباد": 5068, "▁فتحة": 5069, "▁محاولة": 5070, "▁شون": 5071, "▁الكورة": 5072, "حلة": 5073, "▁الدعم": 5074, "نيين": 5075, "شب": 5076, "زه": 5077, "زلة": 5078, "▁أعم": 5079, "ادث": 5080, "خدمه": 5081, "▁شلون": 5082, "▁الحسن": 5083, "▁تخاف": 5084, "▁عنوان": 5085, "▁مواجهة": 5086, "▁الكاميرا": 5087, "نيش": 5088, "ايات": 5089, "▁الذات": 5090, "▁ويعني": 5091, "غا": 5092, "▁نك": 5093, "▁عقد": 5094, "▁بيقولك": 5095, "▁لتح": 5096, "▁احب": 5097, "▁نطلع": 5098, "▁المجلس": 5099, "▁إنهم": 5100, "▁نحنا": 5101, "طلح": 5102, "▁13": 5103, "▁برأ": 5104, "▁نجي": 5105, "▁يخلي": 5106, "ab": 5107, "سسة": 5108, "دو": 5109, "بعث": 5110, "▁الحر": 5111, "▁دياله": 5112, "▁دائماً": 5113, "▁قررت": 5114, "سع": 5115, "▁صل": 5116, "▁قصص": 5117, "ئر": 5118, "▁يحفظ": 5119, "برت": 5120, "همة": 5121, "▁صفة": 5122, "شتراك": 5123, "▁وخمسين": 5124, "▁أوكي": 5125, "▁بيشتغل": 5126, "ذل": 5127, "▁مسك": 5128, "▁نوا": 5129, "▁الترا": 5130, "انع": 5131, "▁أسباب": 5132, "▁أتكلم": 5133, "▁هني": 5134, "▁راجع": 5135, "▁بيخلي": 5136, "▁وقفت": 5137, "ربين": 5138, "ناك": 5139, "▁أخرج": 5140, "▁واو": 5141, "▁هز": 5142, "▁دفاع": 5143, "▁منصوب": 5144, "▁this": 5145, "نسى": 5146, "▁نسي": 5147, "بارات": 5148, "قرة": 5149, "▁حالي": 5150, "▁الزمان": 5151, "ate": 5152, "لسلات": 5153, "▁com": 5154, "▁حقه": 5155, "▁صال": 5156, "▁رش": 5157, "▁اسمي": 5158, "▁خم": 5159, "عتمد": 5160, "▁استع": 5161, "▁البيئة": 5162, "▁كأس": 5163, "▁أنزل": 5164, "▁مكتب": 5165, "▁فهذه": 5166, "▁الحتة": 5167, "▁الجمال": 5168, "▁الاصطناعي": 5169, "▁الاجتماعية": 5170, "رامي": 5171, "▁بتاعتها": 5172, "▁الشاشة": 5173, "ment": 5174, "▁بنشوف": 5175, "▁علاقات": 5176, "وروبي": 5177, "▁الهواء": 5178, "▁يفت": 5179, "خلت": 5180, "▁وعايز": 5181, "▁آيات": 5182, "طها": 5183, "▁عقل": 5184, "▁معلومة": 5185, "ولها": 5186, "▁وقعت": 5187, "▁مريم": 5188, "اجي": 5189, "▁بعيدة": 5190, "▁طبيعة": 5191, "▁بيخ": 5192, "▁المكتب": 5193, "▁so": 5194, "▁حقي": 5195, "▁بيتك": 5196, "▁مشان": 5197, "▁الحوار": 5198, "بيوتر": 5199, "▁ابنك": 5200, "▁الخامس": 5201, "▁الخطوة": 5202, "▁السك": 5203, "▁فيكم": 5204, "▁يؤمن": 5205, "▁يغير": 5206, "▁وأس": 5207, "▁بنعمل": 5208, "شاط": 5209, "▁يده": 5210, "▁16": 5211, "وتين": 5212, "قيد": 5213, "متها": 5214, "▁حماية": 5215, "▁عمليات": 5216, "مز": 5217, "اجأة": 5218, "▁متأ": 5219, "▁يقبل": 5220, "▁القراءة": 5221, "ايت": 5222, "وقت": 5223, "صاب": 5224, "▁وصار": 5225, "خمة": 5226, "▁نصر": 5227, "▁مبسوط": 5228, "▁ماضي": 5229, "▁القدر": 5230, "▁الأسبوع": 5231, "لمي": 5232, "رامة": 5233, "▁المصريين": 5234, "كيم": 5235, "▁البخ": 5236, "▁باك": 5237, "خلف": 5238, "اريع": 5239, "كام": 5240, "▁بلي": 5241, "▁تعا": 5242, "▁سبت": 5243, "▁وسائل": 5244, "▁السلامة": 5245, "ائع": 5246, "اتهم": 5247, "▁ايدي": 5248, "▁جاهز": 5249, "ive": 5250, "▁نوصل": 5251, "▁قدامي": 5252, "▁السل": 5253, "ter": 5254, "▁شركات": 5255, "▁عثمان": 5256, "ردن": 5257, "▁are": 5258, "سبوك": 5259, "▁هتقول": 5260, "▁حاولت": 5261, "▁قاب": 5262, "▁يجمع": 5263, "▁اين": 5264, "▁الوصف": 5265, "قبال": 5266, "▁مرو": 5267, "بها": 5268, "▁وبيقول": 5269, "▁سألت": 5270, "▁معاها": 5271, "▁العسكري": 5272, "▁فصل": 5273, "▁pro": 5274, "▁قيل": 5275, "▁وتم": 5276, "غني": 5277, "▁ظروف": 5278, "▁عمال": 5279, "حسن": 5280, "▁تقبل": 5281, "غوط": 5282, "رتها": 5283, "▁عاش": 5284, "ماعيل": 5285, "▁الأنبياء": 5286, "ابط": 5287, "فعش": 5288, "▁أحس": 5289, "ظي": 5290, "▁هول": 5291, "▁القاعدة": 5292, "ابا": 5293, "▁عادية": 5294, "▁مقب": 5295, "▁تقل": 5296, "▁والآن": 5297, "ازة": 5298, "كلف": 5299, "▁متل": 5300, "▁تخلص": 5301, "▁التليفون": 5302, "▁خليني": 5303, "ابعين": 5304, "قها": 5305, "▁بتاخد": 5306, "▁وجهه": 5307, "▁القرن": 5308, "▁القادم": 5309, "▁القطاع": 5310, "ثم": 5311, "▁حز": 5312, "▁ثقة": 5313, "▁وأع": 5314, "▁يحي": 5315, "▁عذاب": 5316, "▁باله": 5317, "▁والز": 5318, "قعد": 5319, "▁بالذات": 5320, "امين": 5321, "▁أسئلة": 5322, "▁المل": 5323, "▁متأكد": 5324, "▁اون": 5325, "▁النون": 5326, "▁ضربة": 5327, "وافق": 5328, "▁شعور": 5329, "راس": 5330, "مور": 5331, "▁الآخرة": 5332, "▁الذكاء": 5333, "قامة": 5334, "▁الطرق": 5335, "ميزة": 5336, "▁وتد": 5337, "▁قصد": 5338, "▁أمين": 5339, "▁ارض": 5340, "▁ومد": 5341, "▁العال": 5342, "قذ": 5343, "▁سالم": 5344, "▁an": 5345, "▁يشت": 5346, "▁الهمزة": 5347, "▁زه": 5348, "▁جلس": 5349, "▁يمر": 5350, "▁نريد": 5351, "▁الجواب": 5352, "os": 5353, "▁بتست": 5354, "▁الظهر": 5355, "▁تعطي": 5356, "قاد": 5357, "وامل": 5358, "▁طعم": 5359, "▁وربنا": 5360, "عدل": 5361, "▁الشقة": 5362, "▁تقديم": 5363, "▁ويبقى": 5364, "احب": 5365, "سوا": 5366, "▁عيب": 5367, "▁احتمال": 5368, "▁تشت": 5369, "بيك": 5370, "اتنا": 5371, "▁سري": 5372, "▁الحرام": 5373, "▁اجي": 5374, "▁لمع": 5375, "سيم": 5376, "▁ديك": 5377, "▁وقالوا": 5378, "▁قائمة": 5379, "▁وعنده": 5380, "ثرة": 5381, "▁والمش": 5382, "▁شدة": 5383, "▁صافي": 5384, "رز": 5385, "▁as": 5386, "▁كلامه": 5387, "▁بتطلع": 5388, "our": 5389, "▁يدور": 5390, "وووووووو": 5391, "ثق": 5392, "▁لدى": 5393, "▁ذك": 5394, "▁اتفق": 5395, "▁تركيا": 5396, "ميس": 5397, "▁هتعمل": 5398, "▁السينما": 5399, "▁يصلي": 5400, "بيعة": 5401, "▁تقريباً": 5402, "▁وأب": 5403, "▁بالل": 5404, "▁الفن": 5405, "▁نقوم": 5406, "عاء": 5407, "راتك": 5408, "▁التكن": 5409, "▁مبارح": 5410, "▁يقف": 5411, "زلت": 5412, "▁البسي": 5413, "▁وزن": 5414, "▁ونفس": 5415, "▁تجمع": 5416, "▁بتروح": 5417, "▁رواية": 5418, "كرانيا": 5419, "▁السيسي": 5420, "ess": 5421, "▁وأت": 5422, "▁كذب": 5423, "▁وقل": 5424, "▁أهمية": 5425, "▁متح": 5426, "▁يذهب": 5427, "▁يستحق": 5428, "▁مرتين": 5429, "▁يعملوا": 5430, "لاقة": 5431, "▁لاست": 5432, "▁احتيا": 5433, "▁اسبوع": 5434, "▁التالت": 5435, "▁إيمان": 5436, "▁الفني": 5437, "▁نسأل": 5438, "▁يرفع": 5439, "▁نفسية": 5440, "▁بنسبة": 5441, "أكل": 5442, "ناد": 5443, "▁سلا": 5444, "▁وشوف": 5445, "▁الحديد": 5446, "▁منش": 5447, "▁الصبر": 5448, "▁قادرة": 5449, "فور": 5450, "▁ادخل": 5451, "▁الأط": 5452, "نياه": 5453, "▁فدي": 5454, "▁فرد": 5455, "لامي": 5456, "ظيف": 5457, "فعله": 5458, "▁بتخ": 5459, "ect": 5460, "▁تربي": 5461, "▁وبيت": 5462, "▁المعت": 5463, "▁أغلب": 5464, "▁هالم": 5465, "▁خيرا": 5466, "▁قراءة": 5467, "▁المحي": 5468, "▁ميم": 5469, "▁ولدي": 5470, "▁السفر": 5471, "▁اشي": 5472, "▁الإص": 5473, "▁بيز": 5474, "▁تعي": 5475, "▁have": 5476, "تيار": 5477, "قابل": 5478, "▁وآله": 5479, "▁الرأي": 5480, "▁السج": 5481, "▁نبقى": 5482, "▁دراسة": 5483, "▁يكفي": 5484, "▁الغرب": 5485, "كوا": 5486, "وفة": 5487, "▁لذا": 5488, "▁البشرية": 5489, "▁اسرائيل": 5490, "▁الرد": 5491, "▁فهل": 5492, "▁عباس": 5493, "▁الخطاب": 5494, "▁قديم": 5495, "▁أسماء": 5496, "ith": 5497, "▁باللي": 5498, "▁ارتفاع": 5499, "▁ex": 5500, "يرات": 5501, "▁يبت": 5502, "▁المعرفة": 5503, "▁برضه": 5504, "▁ودخل": 5505, "▁اتجاه": 5506, "شنطن": 5507, "▁الأفكار": 5508, "▁الصراع": 5509, "▁داخ": 5510, "فف": 5511, "▁قامت": 5512, "ائف": 5513, "هداف": 5514, "▁صلي": 5515, "▁كسب": 5516, "▁وكانوا": 5517, "ائه": 5518, "▁المعركة": 5519, "▁توص": 5520, "سمى": 5521, "▁الوف": 5522, "▁ضروري": 5523, "▁المقطع": 5524, "▁نضيف": 5525, "▁ne": 5526, "▁راس": 5527, "▁السعادة": 5528, "▁ستين": 5529, "▁فاطمة": 5530, "لقى": 5531, "▁أسأل": 5532, "▁بيتي": 5533, "ue": 5534, "▁الاقتصاد": 5535, "▁القصر": 5536, "▁الميت": 5537, "▁الخدمة": 5538, "ناريو": 5539, "▁أردت": 5540, "▁التخ": 5541, "جعل": 5542, "واتي": 5543, "▁حبيت": 5544, "▁تبت": 5545, "ساء": 5546, "▁العا": 5547, "▁الفرصة": 5548, "نار": 5549, "▁دعا": 5550, "▁البناء": 5551, "▁بقية": 5552, "▁حكاية": 5553, "رورة": 5554, "▁أقرب": 5555, "▁تطور": 5556, "▁الإمارات": 5557, "▁تام": 5558, "▁سبق": 5559, "▁وبدأت": 5560, "▁القوات": 5561, "حص": 5562, "▁الأكبر": 5563, "▁المختلفة": 5564, "▁طبيعية": 5565, "جوا": 5566, "▁سمحت": 5567, "▁الجمع": 5568, "هو": 5569, "▁الشب": 5570, "▁وإلا": 5571, "▁أستطيع": 5572, "▁تصور": 5573, "▁الياب": 5574, "لوها": 5575, "▁السلطان": 5576, "▁هدي": 5577, "▁أجمل": 5578, "▁همزة": 5579, "▁يسلم": 5580, "▁عاملين": 5581, "▁الرواية": 5582, "▁الأساسية": 5583, "نزل": 5584, "▁غدا": 5585, "▁التعليقات": 5586, "ناهم": 5587, "▁قديمة": 5588, "▁ازا": 5589, "لاتين": 5590, "▁سيدة": 5591, "▁يمنع": 5592, "▁عائشة": 5593, "▁مكانه": 5594, "اهل": 5595, "▁عف": 5596, "حابي": 5597, "▁تمن": 5598, "▁مدام": 5599, "راسة": 5600, "▁رئي": 5601, "قصى": 5602, "▁مولا": 5603, "▁المصدر": 5604, "نيات": 5605, "▁القط": 5606, "وفيق": 5607, "▁الجسد": 5608, "▁يقع": 5609, "▁التربية": 5610, "▁برج": 5611, "▁الفلسطيني": 5612, "▁يتع": 5613, "بلوما": 5614, "▁أبداً": 5615, "▁السنين": 5616, "ri": 5617, "لغ": 5618, "▁صناعة": 5619, "▁يتعلم": 5620, "▁انتهت": 5621, "باس": 5622, "▁وفر": 5623, "ثال": 5624, "▁لام": 5625, "▁الدعوة": 5626, "وحيد": 5627, "▁فيت": 5628, "مْ": 5629, "▁شار": 5630, "▁تكونوا": 5631, "▁عموما": 5632, "▁هدول": 5633, "▁وغيرها": 5634, "▁شكر": 5635, "▁الوطني": 5636, "▁أسمع": 5637, "▁مناطق": 5638, "ربون": 5639, "ونات": 5640, "▁تعم": 5641, "▁خسر": 5642, "▁بيشوف": 5643, "▁السا": 5644, "▁خلصنا": 5645, "صى": 5646, "▁يبحث": 5647, "▁كلي": 5648, "▁بصير": 5649, "▁للغاية": 5650, "▁بلاش": 5651, "▁تدفع": 5652, "▁الأهم": 5653, "خده": 5654, "▁لبعض": 5655, "▁البش": 5656, "▁يملك": 5657, "حتها": 5658, "▁قابل": 5659, "▁الداخلي": 5660, "▁افتح": 5661, "▁عملوا": 5662, "▁مفتوح": 5663, "▁والدي": 5664, "▁الجزيرة": 5665, "شون": 5666, "▁الكه": 5667, "▁جان": 5668, "▁المشاهد": 5669, "غلب": 5670, "▁السم": 5671, "▁الخطأ": 5672, "تمر": 5673, "▁وبع": 5674, "▁اللام": 5675, "out": 5676, "كيل": 5677, "ارجي": 5678, "قسم": 5679, "اليا": 5680, "▁دخول": 5681, "عني": 5682, "▁النو": 5683, "خيص": 5684, "كندرية": 5685, "▁انو": 5686, "▁أخذت": 5687, "▁الكي": 5688, "▁مشهد": 5689, "▁بيني": 5690, "▁بتحصل": 5691, "▁بيحاول": 5692, "ac": 5693, "▁نشر": 5694, "▁وراها": 5695, "▁اصل": 5696, "▁ويح": 5697, "▁تشتري": 5698, "▁بقوة": 5699, "▁الشعور": 5700, "▁توق": 5701, "رادة": 5702, "▁محب": 5703, "▁اللبناني": 5704, "بيات": 5705, "▁السيطرة": 5706, "▁خلاف": 5707, "▁يخلص": 5708, "▁أفكار": 5709, "▁شكلها": 5710, "سبانيا": 5711, "▁تنفيذ": 5712, "▁الأسرة": 5713, "▁تخت": 5714, "▁عنديش": 5715, "وزي": 5716, "▁واحت": 5717, "لاع": 5718, "صحاب": 5719, "مارة": 5720, "ينت": 5721, "▁عود": 5722, "▁ويه": 5723, "▁رأسه": 5724, "▁أشخاص": 5725, "عودي": 5726, "▁خطيرة": 5727, "▁اشتركوا": 5728, "سميها": 5729, "▁إعادة": 5730, "▁صر": 5731, "▁عجيب": 5732, "ادت": 5733, "قتنا": 5734, "لاقيه": 5735, "▁تقعد": 5736, "▁تنسى": 5737, "▁كلية": 5738, "▁مستر": 5739, "▁ببساطة": 5740, "▁تطلب": 5741, "▁لاني": 5742, "▁الخطة": 5743, "▁يدل": 5744, "▁درجات": 5745, "▁مسؤول": 5746, "▁هيحصل": 5747, "▁نظرة": 5748, "▁المسرح": 5749, "ثمر": 5750, "▁عادل": 5751, "▁حينما": 5752, "▁دوري": 5753, "▁وفتح": 5754, "▁جيل": 5755, "▁وأخذ": 5756, "▁النفط": 5757, "▁تاب": 5758, "بق": 5759, "▁بيان": 5760, "op": 5761, "حو": 5762, "▁نوم": 5763, "كونات": 5764, "▁بيلعب": 5765, "▁الملائكة": 5766, "▁الروم": 5767, "▁للخ": 5768, "راها": 5769, "▁لأول": 5770, "▁يجري": 5771, "جان": 5772, "بيلة": 5773, "▁تقت": 5774, "▁سما": 5775, "الغ": 5776, "▁يخاف": 5777, "um": 5778, "▁تاي": 5779, "▁الشغ": 5780, "صلت": 5781, "▁غز": 5782, "▁يكمل": 5783, "شو": 5784, "▁يتعامل": 5785, "باً": 5786, "▁يحط": 5787, "▁يلت": 5788, "▁زوجها": 5789, "▁كتر": 5790, "▁مدة": 5791, "▁الطلاب": 5792, "▁إف": 5793, "▁أشعر": 5794, "▁فلازم": 5795, "▁تري": 5796, "▁مدار": 5797, "نسب": 5798, "اوي": 5799, "ريطة": 5800, "▁الورقة": 5801, "▁أخد": 5802, "▁يدعو": 5803, "▁يضع": 5804, "حقا": 5805, "▁ذو": 5806, "▁ولل": 5807, "▁والمت": 5808, "▁شهد": 5809, "▁قلق": 5810, "شيء": 5811, "ينج": 5812, "▁المملكة": 5813, "جأة": 5814, "شلونة": 5815, "▁الإنجلي": 5816, "▁وإنت": 5817, "طينية": 5818, "▁أولاً": 5819, "▁تحديد": 5820, "▁بدر": 5821, "▁الجبل": 5822, "▁أهداف": 5823, "▁الوعي": 5824, "▁بالمناسبة": 5825, "▁بور": 5826, "روه": 5827, "▁كفاية": 5828, "▁معركة": 5829, "▁وقعد": 5830, "عتها": 5831, "▁هج": 5832, "قيدة": 5833, "▁بالر": 5834, "ld": 5835, "كلفة": 5836, "▁مضاف": 5837, "▁سجل": 5838, "▁الشديد": 5839, "▁وجاء": 5840, "▁عبادة": 5841, "▁المقاومة": 5842, "▁يبارك": 5843, "▁هش": 5844, "▁القائ": 5845, "▁نتائج": 5846, "▁الحلوة": 5847, "هههه": 5848, "▁لأننا": 5849, "▁مواقع": 5850, "▁هان": 5851, "▁موسم": 5852, "▁الابت": 5853, "َن": 5854, "▁ابدأ": 5855, "▁قبله": 5856, "res": 5857, "▁الايام": 5858, "▁قم": 5859, "▁أذكر": 5860, "▁نيجي": 5861, "▁معرفش": 5862, "غيل": 5863, "▁me": 5864, "رمين": 5865, "انيين": 5866, "▁المعلومة": 5867, "روق": 5868, "▁طوال": 5869, "▁الدائ": 5870, "▁فعلاً": 5871, "▁مستعد": 5872, "▁قريش": 5873, "▁كتابة": 5874, "وفق": 5875, "ادثة": 5876, "▁واخت": 5877, "▁الوجه": 5878, "▁فاع": 5879, "▁أمل": 5880, "▁اللبنانية": 5881, "راكز": 5882, "وروبية": 5883, "▁مطلوب": 5884, "▁العلاج": 5885, "▁القلوب": 5886, "ينك": 5887, "▁جس": 5888, "▁شأن": 5889, "▁متوا": 5890, "▁المكت": 5891, "▁ملت": 5892, "نياهو": 5893, "▁اليد": 5894, "▁يسوي": 5895, "▁الاحتلال": 5896, "نتخب": 5897, "▁بينك": 5898, "َل": 5899, "000": 5900, "الا": 5901, "صاص": 5902, "▁تكت": 5903, "▁دايماً": 5904, "▁باستخدام": 5905, "▁يخص": 5906, "▁القصص": 5907, "▁رائعة": 5908, "▁التدريب": 5909, "▁غا": 5910, "▁الطلب": 5911, "سرة": 5912, "▁النبات": 5913, "▁شوفي": 5914, "▁الأمير": 5915, "▁الرابعة": 5916, "▁ملع": 5917, "لاش": 5918, "▁تفض": 5919, "▁طري": 5920, "▁متك": 5921, "ئيا": 5922, "▁كاتب": 5923, "▁نمشي": 5924, "▁وجي": 5925, "▁لسان": 5926, "▁عدت": 5927, "▁واذا": 5928, "▁with": 5929, "▁حاسس": 5930, "▁زوجة": 5931, "▁يهد": 5932, "▁بصوا": 5933, "▁وكما": 5934, "▁ومشي": 5935, "▁اننا": 5936, "▁الروا": 5937, "▁الساح": 5938, "▁بتيجي": 5939, "جت": 5940, "ائن": 5941, "زاز": 5942, "سته": 5943, "▁باخت": 5944, "▁وعندي": 5945, "▁سرعة": 5946, "▁خطوات": 5947, "▁الاجابة": 5948, "▁يحكي": 5949, "▁الجنا": 5950, "▁الرحلة": 5951, "زف": 5952, "▁جم": 5953, "▁السياسة": 5954, "ودية": 5955, "▁تختار": 5956, "▁الغربية": 5957, "جتمع": 5958, "▁أمس": 5959, "▁صلا": 5960, "▁المشاعر": 5961, "▁المريض": 5962, "سيا": 5963, "▁عيال": 5964, "▁الايه": 5965, "▁وخد": 5966, "▁سيئة": 5967, "▁ثمانية": 5968, "▁كانتش": 5969, "لوني": 5970, "▁تدريب": 5971, "▁الذكر": 5972, "ذاكر": 5973, "▁والصلاة": 5974, "▁سق": 5975, "يرها": 5976, "▁كات": 5977, "انيات": 5978, "▁تتحدث": 5979, "▁إيا": 5980, "▁وترك": 5981, "▁الهجوم": 5982, "دك": 5983, "▁الإب": 5984, "▁الته": 5985, "ابقة": 5986, "▁اللغ": 5987, "▁عدنا": 5988, "جراءات": 5989, "▁غيرها": 5990, "▁دورة": 5991, "▁الغاز": 5992, "▁الاقتصادية": 5993, "▁مشترك": 5994, "▁نعيش": 5995, "ردد": 5996, "▁يزال": 5997, "▁أظن": 5998, "▁نصب": 5999, "▁المدرب": 6000, "ant": 6001, "▁البص": 6002, "▁الدورة": 6003, "▁لأنني": 6004, "▁الجامع": 6005, "▁الفيديوهات": 6006, "▁الرض": 6007, "▁الوج": 6008, "▁نض": 6009, "▁غاية": 6010, "▁قن": 6011, "▁شخصي": 6012, "وارع": 6013, "▁وعلي": 6014, "ران": 6015, "▁وربما": 6016, "ربها": 6017, "▁نخلي": 6018, "▁هدية": 6019, "▁الطيب": 6020, "▁بينها": 6021, "▁مميز": 6022, "▁الارت": 6023, "ركان": 6024, "▁جزيلا": 6025, "فاج": 6026, "▁انش": 6027, "▁do": 6028, "▁بذ": 6029, "▁شما": 6030, "▁الفع": 6031, "▁الباط": 6032, "▁المفاوضات": 6033, "▁بيتم": 6034, "▁المات": 6035, "▁حضراتكم": 6036, "رمى": 6037, "طنين": 6038, "▁مدرب": 6039, "▁أحلى": 6040, "▁القوم": 6041, "▁ورجع": 6042, "▁اعلى": 6043, "▁أموال": 6044, "▁الإخوة": 6045, "▁الكاتب": 6046, "حيم": 6047, "▁نقرأ": 6048, "▁قدامه": 6049, "يط": 6050, "▁بتب": 6051, "▁أطفال": 6052, "▁عملها": 6053, "▁الدرجة": 6054, "رافي": 6055, "ماهير": 6056, "ئنا": 6057, "ولو": 6058, "▁طلاب": 6059, "▁مريض": 6060, "▁بالمن": 6061, "اها": 6062, "▁عرفنا": 6063, "افات": 6064, "▁عائلة": 6065, "ity": 6066, "▁تربية": 6067, "▁تصريح": 6068, "ؤون": 6069, "▁استنى": 6070, "▁انواع": 6071, "▁القهوة": 6072, "▁جبل": 6073, "▁هار": 6074, "▁مكس": 6075, "▁نكتب": 6076, "▁الذهب": 6077, "▁شايفة": 6078, "▁صبر": 6079, "راتيجي": 6080, "▁عايشين": 6081, "▁أمير": 6082, "▁الأصل": 6083, "▁قواعد": 6084, "تيك": 6085, "▁غني": 6086, "ِن": 6087, "▁انزل": 6088, "▁حالات": 6089, "▁مصلحة": 6090, "وقات": 6091, "▁الاكل": 6092, "▁مضارع": 6093, "▁الآيات": 6094, "شفت": 6095, "▁غيرك": 6096, "▁بتوع": 6097, "▁وجعل": 6098, "▁أداء": 6099, "▁الوزراء": 6100, "▁احكي": 6101, "▁البل": 6102, "▁ذاته": 6103, "▁بالإضافة": 6104, "▁r": 6105, "▁للمش": 6106, "▁والآ": 6107, "▁ورسوله": 6108, "ورها": 6109, "▁محافظة": 6110, "قرب": 6111, "وكم": 6112, "▁توج": 6113, "▁الصاد": 6114, "▁واله": 6115, "▁واد": 6116, "▁يترك": 6117, "تكم": 6118, "▁والان": 6119, "▁عسكرية": 6120, "▁أرسل": 6121, "▁حاله": 6122, "▁بقوله": 6123, "▁عيسى": 6124, "▁الجاي": 6125, "أمل": 6126, "مته": 6127, "رمجة": 6128, "▁علاج": 6129, "▁تكمل": 6130, "▁مشاهد": 6131, "▁غرف": 6132, "ضار": 6133, "▁كبي": 6134, "▁سلسلة": 6135, "▁الامور": 6136, "شات": 6137, "▁سوء": 6138, "▁ورأ": 6139, "▁الإيرانية": 6140, "عن": 6141, "طير": 6142, "▁واشنطن": 6143, "ابي": 6144, "▁جائ": 6145, "▁سقط": 6146, "▁تزوج": 6147, "ويق": 6148, "▁العض": 6149, "▁أساسا": 6150, "▁الصيف": 6151, "▁والذين": 6152, "▁الطبيعة": 6153, "جلة": 6154, "وائل": 6155, "قم": 6156, "▁تطوير": 6157, "▁الكتابة": 6158, "▁كه": 6159, "▁بتص": 6160, "▁جامد": 6161, "▁الضرب": 6162, "▁آل": 6163, "▁يؤدي": 6164, "▁لنفسك": 6165, "▁المحتوى": 6166, "ومين": 6167, "▁تضع": 6168, "▁المنظ": 6169, "▁لات": 6170, "▁أخيرا": 6171, "▁لعل": 6172, "▁جايب": 6173, "▁اكتشف": 6174, "▁نقط": 6175, "▁يتحرك": 6176, "زت": 6177, "يدة": 6178, "▁تحدي": 6179, "▁متعد": 6180, "شارة": 6181, "مييز": 6182, "▁بيدي": 6183, "▁الفرد": 6184, "▁مساعد": 6185, "▁الأعلى": 6186, "▁رف": 6187, "▁شارك": 6188, "▁الأفضل": 6189, "▁الحرية": 6190, "▁تحقق": 6191, "▁قلتلك": 6192, "▁المشت": 6193, "▁وحب": 6194, "▁أدخل": 6195, "▁بحكي": 6196, "▁بتخلي": 6197, "▁العالمي": 6198, "تيجي": 6199, "سميه": 6200, "فيدة": 6201, "▁مصادر": 6202, "▁متش": 6203, "▁فيديوهات": 6204, "▁الخص": 6205, "ارن": 6206, "واحد": 6207, "▁الخلف": 6208, "and": 6209, "▁مبلغ": 6210, "▁ساعتين": 6211, "▁نشاط": 6212, "ابق": 6213, "▁17": 6214, "▁الزب": 6215, "▁سريعة": 6216, "لعاب": 6217, "رارات": 6218, "▁الكهرباء": 6219, "▁غضب": 6220, "▁طارق": 6221, "▁الجيل": 6222, "▁إجابة": 6223, "▁السحر": 6224, "▁لز": 6225, "▁جايين": 6226, "▁عملته": 6227, "▁حدش": 6228, "▁الكبار": 6229, "▁رفي": 6230, "ناعية": 6231, "▁نحاول": 6232, "▁تضرب": 6233, "▁يالله": 6234, "pp": 6235, "ers": 6236, "▁جري": 6237, "▁اقرأ": 6238, "▁الصحيحة": 6239, "▁واربعين": 6240, "فاف": 6241, "▁كأنها": 6242, "نبي": 6243, "▁خا": 6244, "▁وخاصة": 6245, "بهة": 6246, "خدرات": 6247, "▁الضوء": 6248, "▁يعطيك": 6249, "▁المطلوب": 6250, "جرام": 6251, "▁بيض": 6252, "▁حلقات": 6253, "▁سلوك": 6254, "▁المعروف": 6255, "▁المضارع": 6256, "وبي": 6257, "▁حروف": 6258, "دها": 6259, "▁لبس": 6260, "▁ثانيا": 6261, "ليون": 6262, "▁شخصيا": 6263, "▁اسأل": 6264, "▁يقعد": 6265, "▁المدير": 6266, "▁ايد": 6267, "▁جسد": 6268, "▁منطق": 6269, "▁علماء": 6270, "▁بالبيت": 6271, "▁تحرك": 6272, "▁ظهرت": 6273, "▁الغير": 6274, "سأل": 6275, "سيل": 6276, "▁ای": 6277, "▁بالطريقة": 6278, "سمح": 6279, "▁القيم": 6280, "▁وكأنه": 6281, "وامر": 6282, "▁مناسبة": 6283, "باق": 6284, "▁السورية": 6285, "وضى": 6286, "▁كرم": 6287, "▁ولع": 6288, "▁بزاف": 6289, "▁تلقى": 6290, "▁الوظ": 6291, "▁شرق": 6292, "▁الأحمر": 6293, "▁لحضرتك": 6294, "▁الجريمة": 6295, "▁وفجأة": 6296, "ليش": 6297, "▁المبت": 6298, "▁حظ": 6299, "▁يقوله": 6300, "▁قف": 6301, "▁عايزه": 6302, "▁الجزائ": 6303, "▁القضاء": 6304, "▁الوزير": 6305, "▁السودان": 6306, "رمة": 6307, "يبك": 6308, "▁أرجع": 6309, "▁أعوذ": 6310, "▁إضافة": 6311, "▁تتحرك": 6312, "▁وحط": 6313, "▁هنتكلم": 6314, "▁وأكثر": 6315, "▁مره": 6316, "▁نعلم": 6317, "▁التعبير": 6318, "▁سخ": 6319, "▁ضم": 6320, "قليم": 6321, "▁دعاء": 6322, "▁السير": 6323, "▁الطا": 6324, "▁والمن": 6325, "▁بسهولة": 6326, "▁فعله": 6327, "قرآن": 6328, "هران": 6329, "▁أجر": 6330, "▁عفوا": 6331, "▁النقاط": 6332, "▁عرب": 6333, "▁بيهم": 6334, "▁مضيق": 6335, "▁الالف": 6336, "▁أقولك": 6337, "▁صاحبي": 6338, "▁مفتوحة": 6339, "ذية": 6340, "ميت": 6341, "تهي": 6342, "جازة": 6343, "ورين": 6344, "ذار": 6345, "▁أمك": 6346, "▁ممنوع": 6347, "▁والأم": 6348, "▁الطبيب": 6349, "▁مستقبل": 6350, "▁الفلسطينية": 6351, "روش": 6352, "▁شبكة": 6353, "▁الوطنية": 6354, "رافية": 6355, "▁التغيير": 6356, "▁الجمهورية": 6357, "▁بلو": 6358, "▁شمس": 6359, "▁منط": 6360, "▁واني": 6361, "▁لديها": 6362, "▁ينتظر": 6363, "▁ظن": 6364, "▁فاحنا": 6365, "▁عدا": 6366, "▁نسخة": 6367, "▁الغضب": 6368, "▁داف": 6369, "▁بريط": 6370, "▁حرارة": 6371, "▁نسيت": 6372, "▁قريبة": 6373, "▁فالت": 6374, "▁فكرت": 6375, "▁يكلم": 6376, "ئاب": 6377, "▁التركيز": 6378, "فسة": 6379, "▁وقول": 6380, "▁us": 6381, "▁بعث": 6382, "▁سكت": 6383, "▁بدري": 6384, "طورة": 6385, "▁التجارة": 6386, "▁واليوم": 6387, "▁ماسك": 6388, "▁داخلي": 6389, "▁متوقع": 6390, "▁المواطن": 6391, "▁النتائج": 6392, "زيمة": 6393, "▁وعلم": 6394, "▁الاسا": 6395, "▁وخل": 6396, "▁أمة": 6397, "▁بحر": 6398, "▁بتلاقي": 6399, "رجان": 6400, "▁التالية": 6401, "▁بالتأكيد": 6402, "راقي": 6403, "▁حسا": 6404, "▁شرع": 6405, "▁الإلك": 6406, "▁تنظر": 6407, "▁الجبال": 6408, "▁الإدارة": 6409, "نق": 6410, "وزة": 6411, "وصف": 6412, "ريضة": 6413, "▁نأخذ": 6414, "▁والحاجات": 6415, "▁الرف": 6416, "▁تصدق": 6417, "▁يمسك": 6418, "▁سبي": 6419, "▁اشتري": 6420, "▁الإسرائيلية": 6421, "شطة": 6422, "▁روحي": 6423, "▁وذكر": 6424, "▁الفات": 6425, "▁يشاء": 6426, "ايفة": 6427, "▁البيوت": 6428, "▁المطبخ": 6429, "▁الفكر": 6430, "▁شديدة": 6431, "▁مستمر": 6432, "▁بحس": 6433, "▁اسمك": 6434, "▁الجزاء": 6435, "▁اتمنى": 6436, "▁أنفسهم": 6437, "لتنا": 6438, "▁نهر": 6439, "صبية": 6440, "▁can": 6441, "▁بعم": 6442, "▁كشف": 6443, "▁وإيه": 6444, "كش": 6445, "▁اكون": 6446, "▁فارس": 6447, "▁وبص": 6448, "▁go": 6449, "▁هيد": 6450, "▁للمس": 6451, "▁يفضل": 6452, "▁الهوى": 6453, "▁قرية": 6454, "▁بتقوله": 6455, "▁أساسي": 6456, "▁الرياضة": 6457, "نيف": 6458, "▁ستي": 6459, "▁سبعين": 6460, "▁قدمت": 6461, "▁مفرد": 6462, "▁خطير": 6463, "▁عقلك": 6464, "▁سياسية": 6465, "▁نغ": 6466, "▁تتعامل": 6467, "▁أنتوا": 6468, "▁الجمل": 6469, "ئذ": 6470, "▁بفضل": 6471, "▁أبناء": 6472, "تت": 6473, "▁إسلام": 6474, "▁خلونا": 6475, "▁الحكمة": 6476, "رسول": 6477, "▁يتبع": 6478, "ديقة": 6479, "▁قيام": 6480, "▁الجاه": 6481, "عات": 6482, "▁وأول": 6483, "▁تنتهي": 6484, "▁كيفية": 6485, "▁علامات": 6486, "▁حام": 6487, "▁مجموع": 6488, "▁العلوم": 6489, "▁الأساسي": 6490, "▁هاني": 6491, "▁أروح": 6492, "▁يخليك": 6493, "قون": 6494, "آآآآ": 6495, "▁نموذج": 6496, "▁العمليات": 6497, "▁وراه": 6498, "▁مسب": 6499, "▁فندم": 6500, "يرك": 6501, "▁العبادة": 6502, "▁أولى": 6503, "▁إحدى": 6504, "▁الأساس": 6505, "▁وأم": 6506, "▁المعد": 6507, "جأ": 6508, "نتاج": 6509, "▁بعيدا": 6510, "▁العائلة": 6511, "▁ومح": 6512, "▁تتبع": 6513, "▁وتست": 6514, "▁المقب": 6515, "علقة": 6516, "▁لقى": 6517, "▁يوقف": 6518, "▁الجرس": 6519, "▁جمهور": 6520, "فير": 6521, "▁نظري": 6522, "قاً": 6523, "مول": 6524, "▁زب": 6525, "▁المقصود": 6526, "ويه": 6527, "▁أخبار": 6528, "▁الأسباب": 6529, "▁المحاضرة": 6530, "▁الفتح": 6531, "▁الطبيعية": 6532, "فصل": 6533, "شرات": 6534, "وائد": 6535, "▁التنا": 6536, "▁الدراسة": 6537, "زات": 6538, "▁اتخ": 6539, "▁حرم": 6540, "▁الحزب": 6541, "▁صندوق": 6542, "▁والتع": 6543, "▁العادي": 6544, "صرخ": 6545, "▁إلينا": 6546, "▁الرائ": 6547, "▁الكود": 6548, "▁حطيت": 6549, "▁بكثير": 6550, "▁هقولك": 6551, "هورة": 6552, "▁حري": 6553, "▁بأنها": 6554, "▁شهادة": 6555, "▁يتغير": 6556, "حث": 6557, "فقين": 6558, "▁امتى": 6559, "▁تجري": 6560, "▁ننتقل": 6561, "▁تبر": 6562, "▁أحدا": 6563, "▁بركة": 6564, "▁والنبي": 6565, "ort": 6566, "يدنا": 6567, "▁الجنوب": 6568, "▁وتأ": 6569, "her": 6570, "▁بحق": 6571, "▁تقع": 6572, "▁والده": 6573, "▁يساوي": 6574, "سيطر": 6575, "▁وتب": 6576, "▁نحب": 6577, "فوق": 6578, "▁خبرة": 6579, "▁بخط": 6580, "▁سيت": 6581, "▁المأ": 6582, "▁المعلم": 6583, "▁بنفسك": 6584, "▁فلن": 6585, "▁توجد": 6586, "ديهم": 6587, "▁نضع": 6588, "▁هيئة": 6589, "▁بند": 6590, "▁مخرج": 6591, "▁تعليم": 6592, "▁الهجرة": 6593, "▁su": 6594, "▁أمان": 6595, "▁ch": 6596, "▁امه": 6597, "▁أسلم": 6598, "▁بصورة": 6599, "▁الرؤية": 6600, "ضراتكم": 6601, "▁التلفزيون": 6602, "▁أداة": 6603, "▁توجه": 6604, "▁مناسب": 6605, "▁اختلاف": 6606, "▁صي": 6607, "▁أذ": 6608, "وانا": 6609, "ومات": 6610, "يمان": 6611, "▁ظهور": 6612, "▁غالي": 6613, "▁إليهم": 6614, "▁الموبايل": 6615, "▁تهد": 6616, "▁الزيت": 6617, "كنة": 6618, "نتج": 6619, "▁أوه": 6620, "▁يرحم": 6621, "قدة": 6622, "▁بدلا": 6623, "ونهم": 6624, "▁المحكمة": 6625, "▁بيعملوا": 6626, "فيف": 6627, "▁قريبا": 6628, "art": 6629, "ئولية": 6630, "جليزي": 6631, "▁الحص": 6632, "ذاء": 6633, "غبة": 6634, "▁الشك": 6635, "▁العكس": 6636, "▁القدس": 6637, "وتها": 6638, "▁وعندنا": 6639, "▁أشد": 6640, "▁نسب": 6641, "▁مرتبط": 6642, "▁راضي": 6643, "▁وأما": 6644, "▁وليد": 6645, "▁لنفسه": 6646, "▁امن": 6647, "▁حجر": 6648, "▁تالت": 6649, "▁المزيد": 6650, "▁برشلونة": 6651, "قن": 6652, "▁جوجل": 6653, "▁العيش": 6654, "جنة": 6655, "بائل": 6656, "▁أجد": 6657, "▁بيقدر": 6658, "ادئ": 6659, "▁احلى": 6660, "▁ترفع": 6661, "▁en": 6662, "▁رضا": 6663, "▁شروط": 6664, "شكل": 6665, "▁بصي": 6666, "▁العقد": 6667, "▁اهتمام": 6668, "▁القيادة": 6669, "▁بحل": 6670, "▁دما": 6671, "▁بقلب": 6672, "▁وروح": 6673, "▁شرب": 6674, "▁مقطع": 6675, "▁سياسي": 6676, "▁الانس": 6677, "يدان": 6678, "▁يطلق": 6679, "▁will": 6680, "▁القسم": 6681, "▁بعدما": 6682, "▁ألمانيا": 6683, "▁نحتاج": 6684, "▁بكون": 6685, "▁أولئك": 6686, "اربة": 6687, "الفة": 6688, "موا": 6689, "▁تبدو": 6690, "▁وظيفة": 6691, "▁كمال": 6692, "▁مارك": 6693, "▁طل": 6694, "▁جور": 6695, "▁يصلح": 6696, "رفت": 6697, "▁شفته": 6698, "▁فكيف": 6699, "▁التطبيق": 6700, "▁دوا": 6701, "▁نما": 6702, "▁راحة": 6703, "▁رجلا": 6704, "▁وبقى": 6705, "▁والمر": 6706, "▁مبارك": 6707, "▁أخت": 6708, "▁اجعل": 6709, "▁لابس": 6710, "▁مصيبة": 6711, "▁تقف": 6712, "▁الأك": 6713, "كرك": 6714, "▁الهر": 6715, "▁قائد": 6716, "▁الغريب": 6717, "▁شرك": 6718, "▁أجيب": 6719, "▁يبيع": 6720, "▁الرئيسي": 6721, "▁وعدم": 6722, "جيش": 6723, "لتين": 6724, "▁فضي": 6725, "ذاكرة": 6726, "▁هجوم": 6727, "▁يوميا": 6728, "وغ": 6729, "لاوة": 6730, "ريقية": 6731, "▁اساس": 6732, "▁50": 6733, "▁وبرض": 6734, "▁نفسهم": 6735, "▁البخاري": 6736, "▁جينا": 6737, "▁مقام": 6738, "▁هام": 6739, "▁المنتج": 6740, "طيط": 6741, "▁النصر": 6742, "▁فكانت": 6743, "▁الرحمة": 6744, "▁مشغ": 6745, "▁عناصر": 6746, "▁نستطيع": 6747, "▁الأسماء": 6748, "▁تتع": 6749, "▁جنة": 6750, "▁حنا": 6751, "▁جمعة": 6752, "جاعة": 6753, "▁جول": 6754, "▁يجع": 6755, "▁حيا": 6756, "▁يرحمه": 6757, "▁هدا": 6758, "▁داود": 6759, "▁بينهما": 6760, "▁الاغ": 6761, "▁تحفظ": 6762, "جير": 6763, "▁ويوم": 6764, "زز": 6765, "نش": 6766, "▁البت": 6767, "▁زاوية": 6768, "▁الممكن": 6769, "▁40": 6770, "▁زا": 6771, "▁دائرة": 6772, "▁يكت": 6773, "▁سالب": 6774, "▁فعلت": 6775, "▁بتشتغل": 6776, "بته": 6777, "▁مرد": 6778, "▁قرآن": 6779, "خين": 6780, "▁كوب": 6781, "▁يعتمد": 6782, "▁الشريف": 6783, "▁الانترنت": 6784, "واه": 6785, "رائب": 6786, "طيها": 6787, "بيقات": 6788, "▁اعلم": 6789, "▁بيجيب": 6790, "▁حلال": 6791, "▁برب": 6792, "اجد": 6793, "طمن": 6794, "▁le": 6795, "▁الفض": 6796, "▁وناس": 6797, "▁دخلوا": 6798, "▁عمرها": 6799, "اعتها": 6800, "▁التمث": 6801, "▁الإنسانية": 6802, "▁نجم": 6803, "قطة": 6804, "▁شري": 6805, "▁تبني": 6806, "▁وابت": 6807, "تهى": 6808, "▁مول": 6809, "▁تدور": 6810, "▁فرعون": 6811, "▁لمر": 6812, "▁مرك": 6813, "▁أليس": 6814, "▁فرقة": 6815, "▁يثبت": 6816, "▁وخصوص": 6817, "زاب": 6818, "▁دام": 6819, "▁وتج": 6820, "ضوا": 6821, "▁حرية": 6822, "▁ومين": 6823, "▁بيصير": 6824, "▁الصفحة": 6825, "▁تسا": 6826, "سامة": 6827, "▁تفسير": 6828, "▁الكويت": 6829, "▁ورو": 6830, "▁تزيد": 6831, "▁وتكون": 6832, "▁الثورة": 6833, "▁السريع": 6834, "جلت": 6835, "رنا": 6836, "ينية": 6837, "▁not": 6838, "▁تلم": 6839, "▁تواصل": 6840, "▁العودة": 6841, "طول": 6842, "▁الفتحة": 6843, "▁طرح": 6844, "▁أهلاً": 6845, "▁تسع": 6846, "▁تموت": 6847, "▁ثلاثين": 6848, "▁بحسب": 6849, "▁تذهب": 6850, "▁دكتورة": 6851, "▁العشر": 6852, "▁احترام": 6853, "ie": 6854, "▁أكت": 6855, "▁أولي": 6856, "▁تجرب": 6857, "▁الأسود": 6858, "▁المفعول": 6859, "▁الشت": 6860, "▁الأمم": 6861, "قرأ": 6862, "▁نتنياهو": 6863, "▁وطلب": 6864, "▁هيعمل": 6865, "▁الكمبيوتر": 6866, "▁بيئة": 6867, "بوا": 6868, "رائم": 6869, "▁داع": 6870, "▁تعريف": 6871, "▁وصحبه": 6872, "▁k": 6873, "ain": 6874, "▁يسب": 6875, "▁النز": 6876, "▁الكنيسة": 6877, "▁شاه": 6878, "▁المناسب": 6879, "▁قهوة": 6880, "▁قوات": 6881, "▁ويجب": 6882, "▁ليت": 6883, "▁معروفة": 6884, "ساش": 6885, "▁حضرت": 6886, "▁لوحده": 6887, "▁الأكثر": 6888, "nt": 6889, "مره": 6890, "الال": 6891, "▁جار": 6892, "▁ملعب": 6893, "▁العدو": 6894, "▁ومل": 6895, "▁مرور": 6896, "عان": 6897, "المين": 6898, "▁وايد": 6899, "▁تنظيم": 6900, "▁وتص": 6901, "وند": 6902, "▁تشي": 6903, "▁الإد": 6904, "آت": 6905, "▁آلاف": 6906, "▁وخرج": 6907, "▁الوال": 6908, "▁الحالات": 6909, "شم": 6910, "▁ونقول": 6911, "شيال": 6912, "طباء": 6913, "▁تفت": 6914, "▁السادس": 6915, "pt": 6916, "▁الرزق": 6917, "▁الأهلي": 6918, "ومنت": 6919, "▁خان": 6920, "▁أحداث": 6921, "▁تخيلوا": 6922, "▁الحيوانات": 6923, "فيت": 6924, "▁وبا": 6925, "رن": 6926, "امرة": 6927, "نادي": 6928, "▁لفظ": 6929, "▁منزل": 6930, "▁الناحية": 6931, "▁العادة": 6932, "كيشن": 6933, "▁مصد": 6934, "▁آخره": 6935, "▁يصنع": 6936, "▁المرك": 6937, "بابي": 6938, "▁تركز": 6939, "▁مقارنة": 6940, "َي": 6941, "▁سع": 6942, "▁أفهم": 6943, "▁وخلي": 6944, "▁تتغير": 6945, "▁السلوك": 6946, "سير": 6947, "صيدة": 6948, "▁النم": 6949, "▁العاط": 6950, "▁تحليل": 6951, "▁صن": 6952, "▁جرب": 6953, "▁الهات": 6954, "ولوجي": 6955, "▁الزكاة": 6956, "▁أطلع": 6957, "▁بتساوي": 6958, "▁الرئيسية": 6959, "شعر": 6960, "داخل": 6961, "▁الرك": 6962, "▁حامل": 6963, "▁النهائي": 6964, "بعد": 6965, "igh": 6966, "خفض": 6967, "▁النيل": 6968, "▁تماماً": 6969, "قلي": 6970, "▁إث": 6971, "▁عرفش": 6972, "▁يدير": 6973, "▁ترجمة": 6974, "نيت": 6975, "نيك": 6976, "▁كتابه": 6977, "▁خلت": 6978, "▁وزوج": 6979, "▁المخت": 6980, "یه": 6981, "▁إطار": 6982, "▁مصاري": 6983, "▁الدخول": 6984, "هرة": 6985, "▁والمد": 6986, "▁المنظر": 6987, "ستم": 6988, "▁الفار": 6989, "▁المرات": 6990, "▁اوروبا": 6991, "خان": 6992, "▁أضع": 6993, "▁اجل": 6994, "▁حبة": 6995, "▁حرك": 6996, "▁اتخذ": 6997, "▁فاضي": 6998, "▁وعاي": 6999, "▁تجاوز": 7000, "▁فعليا": 7001, "▁التلاتة": 7002, "ئه": 7003, "▁تعامل": 7004, "▁لديهم": 7005, "▁مبتدأ": 7006, "▁ويعمل": 7007, "▁الأوروبي": 7008, "▁أبوه": 7009, "ركين": 7010, "▁عنصر": 7011, "▁البيع": 7012, "▁العلمي": 7013, "▁خلالها": 7014, "▁al": 7015, "ابك": 7016, "▁بغي": 7017, "▁خلنا": 7018, "▁خيار": 7019, "▁العهد": 7020, "▁الأخبار": 7021, "ائص": 7022, "▁وستين": 7023, "▁المقدمة": 7024, "ساد": 7025, "▁موعد": 7026, "▁القيام": 7027, "▁الانتخابات": 7028, "▁أرس": 7029, "▁اهت": 7030, "▁بشأن": 7031, "▁النقد": 7032, "يفا": 7033, "▁محترم": 7034, "▁القاضي": 7035, "بلش": 7036, "يتها": 7037, "▁الستة": 7038, "▁لر": 7039, "ظفين": 7040, "▁باس": 7041, "▁اشتغلت": 7042, "▁الإسلامي": 7043, "-1": 7044, "قدير": 7045, "▁أحكي": 7046, "ذكرة": 7047, "▁الأموال": 7048, "▁طلبت": 7049, "▁معاني": 7050, "تهد": 7051, "وزع": 7052, "▁دقيق": 7053, "▁واجه": 7054, "تيت": 7055, "ارير": 7056, "طاليا": 7057, "▁استط": 7058, "▁جامع": 7059, "▁المساعدة": 7060, "ِّ": 7061, "▁تعني": 7062, "▁احيانا": 7063, "▁الحساب": 7064, "▁المواقف": 7065, "مالي": 7066, "▁سكان": 7067, "▁وسيلة": 7068, "▁قري": 7069, "▁الالت": 7070, "▁مهندس": 7071, "▁ver": 7072, "▁تسمى": 7073, "▁الورق": 7074, "طأ": 7075, "ويش": 7076, "▁قضي": 7077, "▁أشرف": 7078, "▁التصوير": 7079, "▁السنوات": 7080, "▁عدو": 7081, "▁الزاوية": 7082, "شع": 7083, "لوم": 7084, "▁الكلب": 7085, "▁زيارة": 7086, "▁نفسنا": 7087, "لوبة": 7088, "وانب": 7089, "▁يمثل": 7090, "وكي": 7091, "▁فرج": 7092, "▁كزا": 7093, "▁يرا": 7094, "▁تلاف": 7095, "حون": 7096, "▁أسرع": 7097, "▁التكنولوجيا": 7098, "ناني": 7099, "▁كلامك": 7100, "▁دلو": 7101, "رط": 7102, "ريين": 7103, "▁سعيدة": 7104, "لفل": 7105, "وسة": 7106, "▁خدي": 7107, "▁طبق": 7108, "ظاهر": 7109, "▁العلمية": 7110, "▁عت": 7111, "▁امشي": 7112, "▁النات": 7113, "▁وغيره": 7114, "▁العظيمة": 7115, "اث": 7116, "▁أسلوب": 7117, "▁الاسئلة": 7118, "▁المدارس": 7119, "▁میک": 7120, "▁نازل": 7121, "▁استطاع": 7122, "▁المنهج": 7123, "كشف": 7124, "▁لحظات": 7125, "▁شقة": 7126, "▁شهرين": 7127, "▁الهج": 7128, "▁داعي": 7129, "▁مستقب": 7130, "ist": 7131, "▁أخر": 7132, "▁يمن": 7133, "▁كافة": 7134, "ليلة": 7135, "▁حالا": 7136, "▁صوته": 7137, "يرين": 7138, "▁خليه": 7139, "▁لغير": 7140, "▁وقدر": 7141, "▁الملح": 7142, "▁الرياضي": 7143, "▁رابط": 7144, "▁تعليق": 7145, "▁وماذا": 7146, "▁مرتبطة": 7147, "ستور": 7148, "▁يحس": 7149, "▁العبارة": 7150, "▁عبي": 7151, "▁فقالت": 7152, "▁الصحية": 7153, "▁زالت": 7154, "▁سلطان": 7155, "يرت": 7156, "▁جريمة": 7157, "بسط": 7158, "▁فوز": 7159, "▁ينام": 7160, "▁فو": 7161, "باية": 7162, "ناول": 7163, "▁الصفر": 7164, "▁سد": 7165, "▁جدي": 7166, "▁ظاهر": 7167, "▁الاخيرة": 7168, "ore": 7169, "فيه": 7170, "غيرات": 7171, "▁نعود": 7172, "▁أماكن": 7173, "▁تونس": 7174, "▁الأخلاق": 7175, "هُ": 7176, "بان": 7177, "مارس": 7178, "▁الاقتصادي": 7179, "▁بيانات": 7180, "▁رسمي": 7181, "ائك": 7182, "▁صراع": 7183, "▁مهتم": 7184, "▁طعام": 7185, "▁قصدي": 7186, "▁الجهة": 7187, "▁الحجر": 7188, "▁شخصيات": 7189, "لقي": 7190, "رابي": 7191, "▁أكمل": 7192, "▁الحاج": 7193, "▁يسير": 7194, "▁الكور": 7195, "▁حابب": 7196, "▁عملتها": 7197, "▁اليومية": 7198, "سيك": 7199, "شياء": 7200, "وكيد": 7201, "▁اللعيبة": 7202, "زوم": 7203, "ويلة": 7204, "▁الأدب": 7205, "▁مواقف": 7206, "جون": 7207, "يميا": 7208, "▁اللف": 7209, "em": 7210, "▁استد": 7211, "▁ميزة": 7212, "▁التحقيق": 7213, "عرفوا": 7214, "▁ادم": 7215, "▁سند": 7216, "▁ميز": 7217, "▁li": 7218, "▁استغ": 7219, "▁الرأس": 7220, "▁الحالية": 7221, "فتاح": 7222, "▁تفا": 7223, "▁ماله": 7224, "▁الحدث": 7225, "▁العاصمة": 7226, "▁إياك": 7227, "▁مسجد": 7228, "▁الفرح": 7229, "▁تركيز": 7230, "▁الثقافة": 7231, "▁الفوز": 7232, "▁حياتهم": 7233, "▁الكلية": 7234, "▁الجل": 7235, "▁تحكم": 7236, "▁بيبدأ": 7237, "▁الحبيب": 7238, "خرا": 7239, "▁السعر": 7240, "▁سان": 7241, "▁ساي": 7242, "بطل": 7243, "مسح": 7244, "حترم": 7245, "▁بحكم": 7246, "فنا": 7247, "▁حقك": 7248, "▁أبواب": 7249, "▁إطلاق": 7250, "لوة": 7251, "ual": 7252, "▁تقلق": 7253, "▁البار": 7254, "▁العدل": 7255, "▁شت": 7256, "▁منز": 7257, "▁استمرار": 7258, "بنا": 7259, "صنع": 7260, "▁مياه": 7261, "▁الحديثة": 7262, "▁ياه": 7263, "يراني": 7264, "لونا": 7265, "يبقى": 7266, "▁أجي": 7267, "صدقاء": 7268, "▁صحية": 7269, "▁لولا": 7270, "طينا": 7271, "ادم": 7272, "▁حماس": 7273, "▁العشرة": 7274, "▁المبلغ": 7275, "فون": 7276, "الين": 7277, "▁يونس": 7278, "▁الاستثمار": 7279, "▁امين": 7280, "▁أوقات": 7281, "▁يشتري": 7282, "▁المقابل": 7283, "▁اسئلة": 7284, "طيت": 7285, "▁ميل": 7286, "▁ضخمة": 7287, "تيش": 7288, "▁حوار": 7289, "▁ديني": 7290, "▁يومي": 7291, "▁ريت": 7292, "▁تأخر": 7293, "▁ابراهيم": 7294, "▁افريقيا": 7295, "▁القواعد": 7296, "واك": 7297, "▁تخص": 7298, "انوني": 7299, "▁اولاد": 7300, "▁الصيام": 7301, "▁wor": 7302, "▁واعت": 7303, "▁يحكم": 7304, "▁الامت": 7305, "▁وتسعين": 7306, "▁بتقولي": 7307, "ci": 7308, "عملي": 7309, "▁وصلوا": 7310, "▁تعرفوا": 7311, "حيح": 7312, "ميات": 7313, "▁تسلم": 7314, "▁ونصف": 7315, "▁الزوجة": 7316, "فيات": 7317, "لمان": 7318, "مارسة": 7319, "▁شجرة": 7320, "▁يبي": 7321, "ماعات": 7322, "▁تختلف": 7323, "▁الاستع": 7324, "▁باللغة": 7325, "افل": 7326, "▁خفيفة": 7327, "▁الولاد": 7328, "▁تمسك": 7329, "▁شريف": 7330, "▁كلامي": 7331, "▁أكد": 7332, "▁أبرز": 7333, "▁الواو": 7334, "▁تقوله": 7335, "▁تلاحظ": 7336, "فادة": 7337, "▁تأكل": 7338, "▁ترتيب": 7339, "▁جين": 7340, "▁دال": 7341, "▁الدليل": 7342, "▁الفرنسي": 7343, "▁أهله": 7344, "▁ايها": 7345, "▁أدوات": 7346, "يبها": 7347, "▁منصة": 7348, "يقظ": 7349, "شارات": 7350, "▁العافية": 7351, "صفة": 7352, "▁منتج": 7353, "▁اتفضل": 7354, "هز": 7355, "▁الاز": 7356, "▁تراجع": 7357, "▁ملايين": 7358, "▁يمكنني": 7359, "شأ": 7360, "ارضة": 7361, "بروا": 7362, "▁كورة": 7363, "▁يريدون": 7364, "غو": 7365, "غام": 7366, "لكم": 7367, "▁sh": 7368, "▁القلق": 7369, "▁النهر": 7370, "▁اتفقنا": 7371, "▁امك": 7372, "▁أكتب": 7373, "جاد": 7374, "▁لذي": 7375, "▁يديه": 7376, "▁نبينا": 7377, "▁الأفعال": 7378, "ــ": 7379, "▁at": 7380, "▁وجوه": 7381, "▁بسا": 7382, "▁موه": 7383, "▁نام": 7384, "▁أزمة": 7385, "▁بيده": 7386, "▁التاس": 7387, "▁جاهزة": 7388, "▁وعلامة": 7389, "▁مفر": 7390, "▁زادت": 7391, "▁فالأ": 7392, "▁يحقق": 7393, "▁الحلم": 7394, "▁الأحيان": 7395, "▁u": 7396, "ريج": 7397, "▁سيء": 7398, "▁الفنية": 7399, "▁المواقع": 7400, "▁بريطانيا": 7401, "▁بغض": 7402, "▁تسمح": 7403, "▁تشيل": 7404, "▁هيجي": 7405, "▁السبع": 7406, "▁بإمكان": 7407, "عك": 7408, "▁الياء": 7409, "▁جهد": 7410, "▁مكانها": 7411, "▁باستمرار": 7412, "▁خفيف": 7413, "▁لعيب": 7414, "سرائيل": 7415, "▁نهائي": 7416, "سها": 7417, "قنا": 7418, "▁يقتل": 7419, "لاعب": 7420, "واقع": 7421, "▁لجنة": 7422, "▁صاحبه": 7423, "▁محتوى": 7424, "▁اختبار": 7425, "▁كود": 7426, "▁مقدر": 7427, "▁يسمح": 7428, "▁اشياء": 7429, "▁بتقدر": 7430, "▁المستقيم": 7431, "شهد": 7432, "▁اصحاب": 7433, "▁سلامة": 7434, "▁القتال": 7435, "افت": 7436, "عيم": 7437, "ناشر": 7438, "▁صرت": 7439, "▁شعرت": 7440, "▁التحدي": 7441, "ِي": 7442, "▁ربهم": 7443, "▁يعتقد": 7444, "▁حوله": 7445, "▁عاما": 7446, "▁مواد": 7447, "▁الانف": 7448, "نن": 7449, "ضت": 7450, "▁النوا": 7451, "▁مراحل": 7452, "▁مبر": 7453, "▁الشرك": 7454, "▁المترجم": 7455, "▁بنك": 7456, "▁رأيي": 7457, "▁سويت": 7458, "▁قصيرة": 7459, "▁الحاكم": 7460, "▁ولكنها": 7461, "ثيل": 7462, "▁منظومة": 7463, "▁يعرفون": 7464, "▁بحد": 7465, "▁أخوي": 7466, "▁لانك": 7467, "▁المخرج": 7468, "ومه": 7469, "موها": 7470, "وعية": 7471, "▁نجح": 7472, "ستاشر": 7473, "فرح": 7474, "خدمة": 7475, "▁الرم": 7476, "▁القبر": 7477, "▁رجالة": 7478, "▁مراجعة": 7479, "▁ممتازة": 7480, "▁سلمة": 7481, "روت": 7482, "خصية": 7483, "▁الاكس": 7484, "▁سطح": 7485, "▁دخلنا": 7486, "▁الخلاف": 7487, "▁المعادلة": 7488, "قان": 7489, "▁قس": 7490, "▁سال": 7491, "▁your": 7492, "▁بقاش": 7493, "▁النمو": 7494, "▁وحاول": 7495, "▁نستخدم": 7496, "▁العذاب": 7497, "▁النموذج": 7498, "دن": 7499, "▁نايم": 7500, "نفس": 7501, "▁الحروف": 7502, "▁تلاتين": 7503, "▁الاشياء": 7504, "▁ليهم": 7505, "▁المقام": 7506, "برة": 7507, "▁الإم": 7508, "▁بكلم": 7509, "▁ربكم": 7510, "▁حياتها": 7511, "▁بيج": 7512, "▁صادق": 7513, "▁وحشة": 7514, "▁كبيرا": 7515, "▁فمش": 7516, "▁زياد": 7517, "فال": 7518, "▁حكيت": 7519, "▁وعندك": 7520, "نيع": 7521, "▁lo": 7522, "واته": 7523, "▁السلم": 7524, "▁بانه": 7525, "▁تترك": 7526, "▁ضبط": 7527, "▁تكلمنا": 7528, "حانات": 7529, "▁والتح": 7530, "رضي": 7531, "لسان": 7532, "▁لاي": 7533, "▁يوني": 7534, "▁الوزن": 7535, "▁نتعلم": 7536, "علنت": 7537, "▁لأني": 7538, "▁سابقا": 7539, "▁الكامل": 7540, "▁مهد": 7541, "▁زك": 7542, "▁السكون": 7543, "قلة": 7544, "▁أبدأ": 7545, "▁الخروج": 7546, "▁إج": 7547, "▁بمر": 7548, "▁وبتاع": 7549, "▁الضمير": 7550, "▁بانت": 7551, "▁يدرك": 7552, "▁القرى": 7553, "▁تملك": 7554, "▁ولسه": 7555, "▁قالها": 7556, "▁مستمرة": 7557, "▁حاكم": 7558, "▁الامن": 7559, "▁المطار": 7560, "ياز": 7561, "▁اهي": 7562, "▁عدي": 7563, "▁عمان": 7564, "▁السابع": 7565, "جاري": 7566, "▁تلف": 7567, "▁كرا": 7568, "▁التب": 7569, "▁المالي": 7570, "ويج": 7571, "▁وشو": 7572, "▁ناصر": 7573, "فاد": 7574, "▁تصد": 7575, "▁حوا": 7576, "▁قمة": 7577, "▁الصمت": 7578, "▁بدأنا": 7579, "لن": 7580, "rom": 7581, "▁واسم": 7582, "▁يشبه": 7583, "▁تتحول": 7584, "▁الظاهرة": 7585, "وظ": 7586, "ياطين": 7587, "▁الأراضي": 7588, "▁ارج": 7589, "▁جلال": 7590, "▁أخلاق": 7591, "▁بيوصل": 7592, "▁التوبة": 7593, "اكم": 7594, "باري": 7595, "▁كاب": 7596, "▁الفقر": 7597, "▁الحلال": 7598, "▁مرب": 7599, "▁محطة": 7600, "▁فلذلك": 7601, "▁وبير": 7602, "▁رسائل": 7603, "دب": 7604, "pe": 7605, "age": 7606, "▁الاسبوع": 7607, "▁دائم": 7608, "▁دماغك": 7609, "▁الشجرة": 7610, "▁الصندوق": 7611, "▁هب": 7612, "▁ايدك": 7613, "▁يبين": 7614, "▁الكعبة": 7615, "▁استراتيجية": 7616, "▁تاك": 7617, "▁ساح": 7618, "▁انتظر": 7619, "▁واحدا": 7620, "▁القصيدة": 7621, "▁الامريكية": 7622, "فها": 7623, "▁هذول": 7624, "▁يبلغ": 7625, "▁المشاركة": 7626, "▁كذ": 7627, "▁مجرور": 7628, "▁المناسبة": 7629, "▁تأكيد": 7630, "▁الصديق": 7631, "▁موسيقى": 7632, "قرر": 7633, "▁وآخر": 7634, "▁يتحول": 7635, "عدد": 7636, "وكل": 7637, "▁الشاي": 7638, "▁تعتمد": 7639, "▁تعتقد": 7640, "▁هنشوف": 7641, "▁السيارات": 7642, "زيع": 7643, "▁يون": 7644, "صالات": 7645, "▁صفات": 7646, "▁مفتاح": 7647, "جارة": 7648, "▁إنتاج": 7649, "▁البرت": 7650, "مبر": 7651, "▁قلوبهم": 7652, "قاف": 7653, "▁جرام": 7654, "▁اختلف": 7655, "ثناء": 7656, "شكال": 7657, "▁الفقرة": 7658, "الق": 7659, "▁الإف": 7660, "▁شغالة": 7661, "▁جزيرة": 7662, "▁البريط": 7663, "▁بحط": 7664, "▁ماتت": 7665, "▁فطبعا": 7666, "▁العج": 7667, "▁التعاون": 7668, "are": 7669, "▁مكن": 7670, "▁المدن": 7671, "▁بهدوء": 7672, "▁وثلاثة": 7673, "▁ab": 7674, "عتين": 7675, "وليس": 7676, "▁الأسد": 7677, "▁حكومة": 7678, "▁الراحة": 7679, "▁النعمة": 7680, "ودا": 7681, "▁غد": 7682, "▁وخمسة": 7683, "▁أجمعين": 7684, "▁خار": 7685, "▁لمس": 7686, "▁العيال": 7687, "th": 7688, "▁وحين": 7689, "▁تفكير": 7690, "▁حرفيا": 7691, "ناية": 7692, "افرين": 7693, "▁شفتها": 7694, "▁وعملت": 7695, "▁ببط": 7696, "▁وخلص": 7697, "▁الميز": 7698, "▁بحاول": 7699, "▁يختلف": 7700, "قرير": 7701, "▁واشت": 7702, "▁خليها": 7703, "el": 7704, "رفين": 7705, "▁راسي": 7706, "▁الظلم": 7707, "▁للمست": 7708, "▁الهاتف": 7709, "▁وثلاثين": 7710, "▁الخمس": 7711, "▁22": 7712, "ميها": 7713, "▁يفس": 7714, "▁خايفة": 7715, "▁البنية": 7716, "▁ماني": 7717, "▁للاست": 7718, "▁المطعم": 7719, "▁الموسيقى": 7720, "▁ضيف": 7721, "▁بيرجع": 7722, "▁نصيحة": 7723, "▁الروسي": 7724, "▁أفريقيا": 7725, "بادة": 7726, "▁تكس": 7727, "▁سحر": 7728, "▁تبين": 7729, "▁بالسي": 7730, "▁تصوير": 7731, "انو": 7732, "▁إياه": 7733, "▁قائلا": 7734, "▁راه": 7735, "▁واع": 7736, "▁أسر": 7737, "▁بدأوا": 7738, "▁تنسوا": 7739, "بلد": 7740, "تكي": 7741, "شير": 7742, "▁تقرير": 7743, "▁استغل": 7744, "▁البرا": 7745, "▁المثل": 7746, "سيق": 7747, "لاج": 7748, "▁بيا": 7749, "▁حكمة": 7750, "▁الخامسة": 7751, "▁جهنم": 7752, "▁المطر": 7753, "▁وحاجات": 7754, "▁الكريمة": 7755, "▁تساوي": 7756, "ائم": 7757, "عداء": 7758, "▁عدل": 7759, "▁وقته": 7760, "▁الاكت": 7761, "▁بقد": 7762, "▁تصلي": 7763, "▁ياسر": 7764, "▁المدى": 7765, "▁الحارة": 7766, "▁العناصر": 7767, "▁ولقد": 7768, "اطب": 7769, "▁حسنة": 7770, "▁بالمس": 7771, "▁يختار": 7772, "الع": 7773, "▁ضل": 7774, "▁دنيا": 7775, "▁نجوم": 7776, "▁الروسية": 7777, "▁روحت": 7778, "▁موضع": 7779, "all": 7780, "صات": 7781, "صرة": 7782, "▁اتش": 7783, "▁القضايا": 7784, "▁باختصار": 7785, "ذير": 7786, "ضمن": 7787, "وبا": 7788, "▁سكن": 7789, "▁وسأ": 7790, "▁ميسي": 7791, "▁هيقول": 7792, "▁السرعة": 7793, "ud": 7794, "حضر": 7795, "▁un": 7796, "▁دب": 7797, "▁هلو": 7798, "▁الاتجاه": 7799, "▁المفتاح": 7800, "راءات": 7801, "▁السرير": 7802, "وست": 7803, "▁اسلوب": 7804, "▁الشرعية": 7805, "▁مصدق": 7806, "▁استمر": 7807, "▁أنفسنا": 7808, "▁سح": 7809, "▁حدد": 7810, "▁شاك": 7811, "▁برافو": 7812, "▁وقلنا": 7813, "▁الأربع": 7814, "▁الشكر": 7815, "▁النجوم": 7816, "▁الاهتمام": 7817, "طيئة": 7818, "▁أتى": 7819, "▁دبي": 7820, "▁مقدم": 7821, "▁إنجاز": 7822, "▁بكلمة": 7823, "▁فممكن": 7824, "ندن": 7825, "▁فنا": 7826, "قاب": 7827, "▁ثبت": 7828, "▁ضعيفة": 7829, "ؤل": 7830, "وكب": 7831, "▁ناد": 7832, "▁تعلي": 7833, "▁قلوبنا": 7834, "▁يدرس": 7835, "▁الجواز": 7836, "▁قرارات": 7837, "▁أسعار": 7838, "▁عسكري": 7839, "▁رز": 7840, "▁فول": 7841, "▁دروس": 7842, "▁إياها": 7843, "▁برامج": 7844, "▁وتعمل": 7845, "▁المسلمون": 7846, "▁أبوك": 7847, "▁الأوسط": 7848, "▁العالي": 7849, "▁التحديات": 7850, "▁ومنها": 7851, "▁البيض": 7852, "ائنات": 7853, "▁جودة": 7854, "▁تهديد": 7855, "خصصة": 7856, "▁الوس": 7857, "▁المجه": 7858, "▁معرض": 7859, "ؤاد": 7860, "قلت": 7861, "▁ربط": 7862, "▁بدور": 7863, "▁عودة": 7864, "▁يجلس": 7865, "▁دمشق": 7866, "▁السعودي": 7867, "▁المشاهدين": 7868, "▁العمي": 7869, "▁الأهداف": 7870, "▁الخشب": 7871, "▁وذ": 7872, "▁عقب": 7873, "▁الواجب": 7874, "▁pl": 7875, "نائي": 7876, "▁مور": 7877, "▁وتبقى": 7878, "▁لحظ": 7879, "▁مبد": 7880, "▁وبتقول": 7881, "عدوا": 7882, "▁برك": 7883, "▁يدري": 7884, "▁حاس": 7885, "▁مبدأ": 7886, "كيت": 7887, "▁نر": 7888, "▁عليا": 7889, "▁المساحة": 7890, "وسي": 7891, "▁بيحكي": 7892, "خله": 7893, "▁نسوي": 7894, "▁الإله": 7895, "▁القتل": 7896, "▁الميم": 7897, "▁وعل": 7898, "رازيل": 7899, "▁تبحث": 7900, "▁دولي": 7901, "▁بعضه": 7902, "▁يقصد": 7903, "▁.": 7904, "تام": 7905, "▁بآ": 7906, "▁برة": 7907, "▁فوت": 7908, "▁الفضل": 7909, "▁تعبان": 7910, "▁بام": 7911, "▁سمعنا": 7912, "▁ينتهي": 7913, "▁الحكيم": 7914, "▁وبك": 7915, "▁نوعا": 7916, "▁هرمز": 7917, "▁الأردن": 7918, "ust": 7919, "ايم": 7920, "ستيك": 7921, "فقات": 7922, "▁تدل": 7923, "▁ومص": 7924, "▁وايه": 7925, "▁أفلام": 7926, "حش": 7927, "▁شرا": 7928, "▁لأحد": 7929, "جزء": 7930, "جهز": 7931, "فرد": 7932, "ودع": 7933, "▁أهلي": 7934, "▁يسجل": 7935, "▁يولي": 7936, "▁معلقة": 7937, "▁خام": 7938, "▁تولي": 7939, "▁الأماكن": 7940, "▁فجاء": 7941, "▁مطلق": 7942, "▁بالتح": 7943, "▁ترب": 7944, "▁أبقى": 7945, "▁عينك": 7946, "▁باتجاه": 7947, "رحب": 7948, "▁وشه": 7949, "▁مطلع": 7950, "▁نفكر": 7951, "▁الحلقات": 7952, "كار": 7953, "لاقوا": 7954, "▁الحزن": 7955, "▁القمر": 7956, "▁طلعوا": 7957, "▁مشهور": 7958, "لطات": 7959, "▁كول": 7960, "ريكان": 7961, "▁الفور": 7962, "▁اللحظات": 7963, "ذى": 7964, "راطية": 7965, "▁إمام": 7966, "▁بحال": 7967, "▁استخد": 7968, "▁اعتبر": 7969, "رفي": 7970, "شيخ": 7971, "▁وكن": 7972, "▁كأنك": 7973, "▁وسبعين": 7974, "▁تمثل": 7975, "▁هادا": 7976, "▁العمال": 7977, "▁وخصوصا": 7978, "▁احط": 7979, "▁كفروا": 7980, "وديو": 7981, "▁تثبت": 7982, "ذيب": 7983, "▁ستت": 7984, "ction": 7985, "▁حديد": 7986, "▁سارة": 7987, "▁وتعرف": 7988, "عال": 7989, "▁لعيبة": 7990, "▁الأفلام": 7991, "مها": 7992, "▁اجت": 7993, "▁بطلع": 7994, "▁خلقه": 7995, "▁إنس": 7996, "▁السفن": 7997, "دات": 7998, "ميك": 7999, "▁المواطنين": 8000, "▁طر": 8001, "▁تمكن": 8002, "▁عامر": 8003, "▁23": 8004, "▁هاج": 8005, "▁مشيت": 8006, "▁منظر": 8007, "▁عايشة": 8008, "▁ضح": 8009, "بعاد": 8010, "جبني": 8011, "▁سمح": 8012, "راقبة": 8013, "▁العث": 8014, "▁الأبيض": 8015, "▁القوانين": 8016, "ine": 8017, "نوان": 8018, "▁شام": 8019, "▁they": 8020, "▁خالي": 8021, "▁قاتل": 8022, "▁لطيف": 8023, "▁وحنا": 8024, "▁مهارة": 8025, "▁تحل": 8026, "▁وهد": 8027, "▁بالحق": 8028, "فاءة": 8029, "▁العامل": 8030, "▁كيت": 8031, "▁الشخصي": 8032, "▁وقتك": 8033, "▁فعشان": 8034, "كاس": 8035, "جموعة": 8036, "▁والض": 8037, "▁الخدمات": 8038, "▁غرب": 8039, "▁الفرن": 8040, "▁والسي": 8041, "▁الأزمة": 8042, "▁البسيطة": 8043, "▁والنهار": 8044, "لاين": 8045, "▁بتج": 8046, "▁عمار": 8047, "▁حف": 8048, "روسة": 8049, "▁أقسم": 8050, "▁والعمل": 8051, "▁تسب": 8052, "▁تفع": 8053, "▁أفعل": 8054, "ماك": 8055, "▁جرا": 8056, "▁سلطة": 8057, "▁التعا": 8058, "▁ظاهرة": 8059, "▁هنقول": 8060, "▁الأولاد": 8061, "▁by": 8062, "سباني": 8063, "▁شغلي": 8064, "▁سياسة": 8065, "▁يواجه": 8066, "عش": 8067, "ight": 8068, "ame": 8069, "▁نجا": 8070, "▁وعمر": 8071, "▁الدينية": 8072, "عاً": 8073, "▁أحدهم": 8074, "▁العشرين": 8075, "▁مسم": 8076, "▁الصفة": 8077, "▁مقدمة": 8078, "طلقت": 8079, "▁كافي": 8080, "فقت": 8081, "ناقش": 8082, "▁ملام": 8083, "▁يحضر": 8084, "▁؟": 8085, "▁حار": 8086, "▁ميك": 8087, "▁واص": 8088, "▁يصدق": 8089, "▁بالكم": 8090, "▁الفتاة": 8091, "▁ليل": 8092, "▁ونش": 8093, "▁افهم": 8094, "▁جزاء": 8095, "▁كلكم": 8096, "▁مطعم": 8097, "▁تواجه": 8098, "▁وانتي": 8099, "▁المحيط": 8100, "-2": 8101, "▁صبا": 8102, "▁يمل": 8103, "▁يغفر": 8104, "صرت": 8105, "▁تور": 8106, "▁زيك": 8107, "▁فاج": 8108, "▁مساعدة": 8109, "▁الصحراء": 8110, "ملت": 8111, "▁ارد": 8112, "▁كهرب": 8113, "▁مشكل": 8114, "▁السكان": 8115, "▁العشاء": 8116, "▁شفتوا": 8117, "▁دونالد": 8118, "▁whe": 8119, "▁فاصل": 8120, "▁الصفات": 8121, "قيلة": 8122, "▁زوجي": 8123, "▁عينه": 8124, "▁كومي": 8125, "▁نفتح": 8126, "▁الباقي": 8127, "ظرة": 8128, "▁what": 8129, "▁ريحة": 8130, "▁تقلي": 8131, "▁والحقيقة": 8132, "▁اضط": 8133, "▁تيم": 8134, "▁حمام": 8135, "▁راحوا": 8136, "▁راي": 8137, "▁تصنع": 8138, "▁ذهبت": 8139, "▁ودائ": 8140, "▁يعرفوا": 8141, "▁التمرين": 8142, "▁بمجرد": 8143, "▁تنتظر": 8144, "▁القائد": 8145, "▁فقالوا": 8146, "▁صرف": 8147, "▁وبه": 8148, "▁غيرت": 8149, "▁يعيد": 8150, "▁اساسا": 8151, "▁الخطوات": 8152, "بوت": 8153, "متى": 8154, "▁استخ": 8155, "▁الضع": 8156, "▁الكفر": 8157, "▁مسؤولية": 8158, "te": 8159, "ناب": 8160, "▁تخش": 8161, "▁محبة": 8162, "▁المنطق": 8163, "▁تعرفون": 8164, "▁الخارجي": 8165, "▁بيكلم": 8166, "▁التعريف": 8167, "ديمق": 8168, "▁شان": 8169, "▁يام": 8170, "▁أصلي": 8171, "▁الصدق": 8172, "▁للنبي": 8173, "▁الدواء": 8174, "▁الفنان": 8175, "لاس": 8176, "▁عاب": 8177, "▁سوري": 8178, "زك": 8179, "▁واثنين": 8180, "كدة": 8181, "ويض": 8182, "▁وكنا": 8183, "تاح": 8184, "▁وساعتها": 8185, "ايدة": 8186, "▁هروح": 8187, "▁لصالح": 8188, "▁تليفون": 8189, "بلوماسية": 8190, "ياتي": 8191, "▁محم": 8192, "▁اجتمع": 8193, "▁ولاية": 8194, "▁الأرقام": 8195, "فيان": 8196, "▁فيا": 8197, "▁تعلق": 8198, "▁يرضى": 8199, "▁ديالي": 8200, "▁الاختيار": 8201, "كله": 8202, "▁one": 8203, "▁إخوان": 8204, "▁الغابة": 8205, "روها": 8206, "▁مكون": 8207, "ولوجية": 8208, "▁تفتكر": 8209, "▁بالتالي": 8210, "اتا": 8211, "قينا": 8212, "▁تزال": 8213, "▁السفينة": 8214, "▁الامريكي": 8215, "خلط": 8216, "فصيل": 8217, "▁بالظ": 8218, "كرت": 8219, "▁نفع": 8220, "▁رهيب": 8221, "▁فارق": 8222, "▁الاخير": 8223, "▁مشاركة": 8224, "▁يمكننا": 8225, "▁اليس": 8226, "▁مهارات": 8227, "▁كلب": 8228, "▁حاسة": 8229, "طئ": 8230, "▁نوح": 8231, "▁كثرة": 8232, "▁ملابس": 8233, "▁الأربعة": 8234, "دس": 8235, "▁أقرأ": 8236, "▁عجبت": 8237, "▁مؤقت": 8238, "▁متاع": 8239, "▁الظاهر": 8240, "▁بالاست": 8241, "50": 8242, "▁تلع": 8243, "▁اصبح": 8244, "▁تسعين": 8245, "▁التقلي": 8246, "▁غض": 8247, "▁تخي": 8248, "▁الرغم": 8249, "جزة": 8250, "▁مصنع": 8251, "حيات": 8252, "▁وصول": 8253, "▁مالية": 8254, "▁النووي": 8255, "قيمة": 8256, "▁ظرف": 8257, "لوكي": 8258, "برا": 8259, "قوب": 8260, "فترة": 8261, "▁قات": 8262, "▁وكتب": 8263, "▁ووضع": 8264, "▁العادية": 8265, "▁بيستخدم": 8266, "ذان": 8267, "▁ومرة": 8268, "▁يورو": 8269, "▁تقدير": 8270, "▁متأخر": 8271, "▁لاحظوا": 8272, "▁الانتاج": 8273, "▁إننا": 8274, "▁مرس": 8275, "▁سابق": 8276, "▁شارع": 8277, "▁واسعة": 8278, "▁الحسين": 8279, "▁قدامنا": 8280, "لز": 8281, "▁طلق": 8282, "▁ليا": 8283, "▁يؤثر": 8284, "▁رأيكم": 8285, "بيح": 8286, "جنب": 8287, "▁ورغم": 8288, "▁الأمان": 8289, "تان": 8290, "ليكس": 8291, "▁بمش": 8292, "▁تدي": 8293, "▁علوم": 8294, "▁واسع": 8295, "▁وضرب": 8296, "▁مرتاح": 8297, "▁الغالب": 8298, "▁الوظيفة": 8299, "▁يوص": 8300, "▁لاحقا": 8301, "▁التوتر": 8302, "▁والمست": 8303, "▁العنوان": 8304, "زنة": 8305, "▁وضعت": 8306, "▁الفقه": 8307, "خلة": 8308, "▁حذ": 8309, "▁ويق": 8310, "عج": 8311, "▁بتك": 8312, "▁تدير": 8313, "▁سيتي": 8314, "▁ونست": 8315, "▁القومي": 8316, "▁الحضارة": 8317, "▁الطرفين": 8318, "▁تبا": 8319, "▁حجة": 8320, "▁الفرقة": 8321, "غان": 8322, "لاثة": 8323, "▁أبوي": 8324, "▁جنبه": 8325, "▁وقفة": 8326, "▁اتعلم": 8327, "ure": 8328, "لفت": 8329, "▁ارتك": 8330, "▁طاعة": 8331, "▁قرأت": 8332, "▁وإنه": 8333, "▁قوانين": 8334, "فقه": 8335, "▁شم": 8336, "▁كيس": 8337, "▁موق": 8338, "▁ايده": 8339, "▁كبرى": 8340, "▁بالتع": 8341, "▁والدنيا": 8342, "▁السيناريو": 8343, "end": 8344, "طية": 8345, "▁دك": 8346, "صرية": 8347, "▁عمد": 8348, "▁فصار": 8349, "صفات": 8350, "اليات": 8351, "▁بيوم": 8352, "▁ضرورة": 8353, "▁مخلوق": 8354, "▁رغبة": 8355, "▁وهيك": 8356, "▁امتحان": 8357, "▁البحرية": 8358, "صا": 8359, "▁tr": 8360, "▁تلو": 8361, "▁استح": 8362, "▁الذه": 8363, "▁وقام": 8364, "خاف": 8365, "▁هناخد": 8366, "▁والأخ": 8367, "▁لأجل": 8368, "▁الافت": 8369, "▁علمي": 8370, "▁السبت": 8371, "▁الحروب": 8372, "▁بايه": 8373, "▁وتشوف": 8374, "▁البشري": 8375, "موح": 8376, "سيات": 8377, "▁فشل": 8378, "▁ينس": 8379, "▁فعند": 8380, "▁بمس": 8381, "▁دقايق": 8382, "▁كيفاش": 8383, "▁التنفيذ": 8384, "▁مشاهدين": 8385, "▁الأند": 8386, "▁باعتبار": 8387, "▁أوكرانيا": 8388, "صوا": 8389, "طفية": 8390, "▁ساد": 8391, "▁وسم": 8392, "▁يبا": 8393, "▁قتلت": 8394, "▁لينا": 8395, "▁نائب": 8396, "▁الطيارة": 8397, "ah": 8398, "مامة": 8399, "▁جعفر": 8400, "▁المسافة": 8401, "▁إم": 8402, "▁صوتك": 8403, "▁يضحك": 8404, "▁المسؤول": 8405, "▁100%": 8406, "▁اقوى": 8407, "وسطة": 8408, "▁أقدم": 8409, "▁يكسب": 8410, "▁أخوان": 8411, "▁فائدة": 8412, "▁مراد": 8413, "▁التنمية": 8414, "▁أسهل": 8415, "▁وإما": 8416, "▁وكلام": 8417, "▁الاتصال": 8418, "▁تث": 8419, "▁أرب": 8420, "▁رحم": 8421, "▁البطل": 8422, "▁بيساوي": 8423, "▁السلبية": 8424, "▁المسلسلات": 8425, "▁برس": 8426, "▁العز": 8427, "▁نخرج": 8428, "يها": 8429, "▁لتن": 8430, "▁الغز": 8431, "▁ينجح": 8432, "▁الوجود": 8433, "▁الاستاذ": 8434, "حاديث": 8435, "▁شاطر": 8436, "▁أربعين": 8437, "▁الدماغ": 8438, "▁كلمتين": 8439, "طلا": 8440, "▁محور": 8441, "▁الدهب": 8442, "▁التوفيق": 8443, "▁اقتصادية": 8444, "فقد": 8445, "رايب": 8446, "قدمة": 8447, "▁منهج": 8448, "▁الأهل": 8449, "▁هتعرف": 8450, "كته": 8451, "▁فاس": 8452, "▁أبغى": 8453, "▁ادري": 8454, "▁سامح": 8455, "▁انق": 8456, "▁لعم": 8457, "▁قصير": 8458, "▁وتلاتين": 8459, "▁ياب": 8460, "▁تستحق": 8461, "▁رض": 8462, "▁الوض": 8463, "▁البرمجة": 8464, "فسير": 8465, "▁غاز": 8466, "غت": 8467, "ئمة": 8468, "▁نساء": 8469, "▁فنقول": 8470, "ائح": 8471, "▁الظل": 8472, "▁بتلعب": 8473, "▁مصالح": 8474, "▁المرس": 8475, "▁إيجابية": 8476, "هى": 8477, "▁مرع": 8478, "▁تقطع": 8479, "▁معاد": 8480, "▁الجلد": 8481, "▁القوى": 8482, "▁بنفسي": 8483, "▁بوجود": 8484, "▁الرسمية": 8485, "▁نظرية": 8486, "▁ويطلع": 8487, "▁بالنسب": 8488, "▁المتوسط": 8489, "iv": 8490, "▁آن": 8491, "باقي": 8492, "▁أمره": 8493, "▁اتصل": 8494, "▁اكتشفت": 8495, "▁لتع": 8496, "▁الكا": 8497, "▁نشتغل": 8498, "ختم": 8499, "جرين": 8500, "▁تشارك": 8501, "▁التحكم": 8502, "▁الجنود": 8503, "واجهة": 8504, "▁وقلب": 8505, "▁بهال": 8506, "▁مبين": 8507, "▁ننزل": 8508, "فتها": 8509, "▁علما": 8510, "▁يسوع": 8511, "▁الورد": 8512, "▁السوشيال": 8513, "گه": 8514, "زيت": 8515, "ستين": 8516, "▁روم": 8517, "▁المقدس": 8518, "▁الخلايا": 8519, "افظات": 8520, "▁الكهف": 8521, "ould": 8522, "▁لإن": 8523, "▁مدي": 8524, "▁مكا": 8525, "▁نمو": 8526, "▁اختر": 8527, "▁يعبر": 8528, "▁بيدخل": 8529, "▁تقييم": 8530, "▁والات": 8531, "▁للعالم": 8532, "▁حلف": 8533, "▁لحي": 8534, "▁يتح": 8535, "ساعدك": 8536, "▁للمت": 8537, "▁إشارة": 8538, "عاب": 8539, "▁إلك": 8540, "▁فاش": 8541, "▁نفي": 8542, "▁غيري": 8543, "▁ناجح": 8544, "▁تشكيل": 8545, "واف": 8546, "▁خروج": 8547, "▁الدروس": 8548, "▁لسا": 8549, "اطئ": 8550, "برك": 8551, "▁بالان": 8552, "▁تتوقف": 8553, "▁قدرات": 8554, "اااااااا": 8555, "▁يظن": 8556, "▁حارس": 8557, "▁يتحمل": 8558, "بطال": 8559, "▁للز": 8560, "ترونية": 8561, "▁معقولة": 8562, "قيع": 8563, "ارته": 8564, "كوين": 8565, "▁بنته": 8566, "▁تاكل": 8567, "▁إيجابي": 8568, "▁تشوفون": 8569, "صمة": 8570, "▁زمي": 8571, "▁فاز": 8572, "▁بنتك": 8573, "▁مجهود": 8574, "▁التمثيل": 8575, ".5": 8576, "▁بينزل": 8577, "▁حدثنا": 8578, "▁الأداء": 8579, "▁قلة": 8580, "▁تحضر": 8581, "▁فنحن": 8582, "▁تهم": 8583, "نائية": 8584, "▁أسفل": 8585, "▁خسارة": 8586, "▁مفيدة": 8587, "براط": 8588, "▁اللم": 8589, "▁سلبية": 8590, "▁مزيان": 8591, "ple": 8592, "رواح": 8593, "▁جمل": 8594, "▁تحية": 8595, "▁نجحت": 8596, "▁دلوقت": 8597, "▁ميلاد": 8598, "▁الكرسي": 8599, "صت": 8600, "وقة": 8601, "▁تيك": 8602, "▁جحا": 8603, "▁منح": 8604, "▁بالخير": 8605, "▁متعددة": 8606, "یر": 8607, "نطة": 8608, "هلة": 8609, "▁طبيب": 8610, "▁اتصال": 8611, "▁وليست": 8612, "▁الاطفال": 8613, "المة": 8614, "اليب": 8615, "▁ضوء": 8616, "▁طبقة": 8617, "▁فالح": 8618, "▁مذكر": 8619, "▁ليبيا": 8620, "▁مظبوط": 8621, "▁الوالد": 8622, "▁المسلحة": 8623, "▁محس": 8624, "▁وأد": 8625, "▁جابر": 8626, "▁البني": 8627, "▁البرامج": 8628, "موش": 8629, "ليني": 8630, "▁يبني": 8631, "▁باريس": 8632, "▁منظمة": 8633, "برد": 8634, "فاض": 8635, "▁يقرب": 8636, "▁يقطع": 8637, "▁صعوبة": 8638, "▁ياريت": 8639, "▁all": 8640, "▁للبيت": 8641, "▁أكن": 8642, "▁مسافة": 8643, "▁im": 8644, "▁جواز": 8645, "▁يحسن": 8646, "▁والكل": 8647, "جام": 8648, "مممم": 8649, "ome": 8650, "▁رت": 8651, "▁وبنت": 8652, "▁وفاة": 8653, "▁فرحة": 8654, "▁نظرت": 8655, "▁يخدم": 8656, "▁أبطال": 8657, "▁العيلة": 8658, "▁الخليفة": 8659, "كتاب": 8660, "▁عادت": 8661, "▁بيتها": 8662, "▁رايحة": 8663, "▁نفت": 8664, "▁أسوي": 8665, "▁أنعم": 8666, "▁الجغ": 8667, "▁بفكر": 8668, "▁البقاء": 8669, "خال": 8670, "ضاف": 8671, "منت": 8672, "▁یک": 8673, "▁سرق": 8674, "▁سود": 8675, "▁نمی": 8676, "▁جسمك": 8677, "▁تشوفوا": 8678, "▁تعملوا": 8679, "▁الوزارة": 8680, "گر": 8681, "▁أدرك": 8682, "▁أفكر": 8683, "▁اذكر": 8684, "▁زينة": 8685, "▁ويبدأ": 8686, "▁الزراعة": 8687, "▁بالموضوع": 8688, "...": 8689, "حاء": 8690, "ياكم": 8691, "▁جوة": 8692, "▁غلب": 8693, "▁الصعب": 8694, "▁البيان": 8695, "▁الأمراض": 8696, "سيب": 8697, "ولوا": 8698, "▁أدي": 8699, "▁بعين": 8700, "▁اعمال": 8701, "داري": 8702, "فولة": 8703, "▁خلى": 8704, "▁فضلت": 8705, "▁لانا": 8706, "▁صغار": 8707, "▁يمتلك": 8708, "▁القوضة": 8709, "▁سامي": 8710, "▁الربع": 8711, "▁الوليد": 8712, "▁إسماعيل": 8713, "▁تأكد": 8714, "▁غياب": 8715, "▁تعبير": 8716, "▁الرياض": 8717, "امر": 8718, "رول": 8719, "عدت": 8720, "صيحة": 8721, "▁السب": 8722, "▁الفرص": 8723, "▁النسخة": 8724, "▁النشاط": 8725, "نقل": 8726, "لقوا": 8727, "▁ثمن": 8728, "▁صمت": 8729, "▁قومه": 8730, "▁حوالين": 8731, "▁التوكيد": 8732, "▁الصناعة": 8733, "عنا": 8734, "▁أعلن": 8735, "▁احفظ": 8736, "▁أفعال": 8737, "▁بخصوص": 8738, "▁غالية": 8739, "▁العراقي": 8740, "وكو": 8741, "▁ولت": 8742, "▁حلول": 8743, "▁بتحاول": 8744, "ice": 8745, "▁تحسن": 8746, "▁عملك": 8747, "▁الحارس": 8748, "▁i": 8749, "نوعة": 8750, "▁أنكم": 8751, "▁الميلاد": 8752, "▁الفيسبوك": 8753, "قوى": 8754, "▁مسعود": 8755, "▁الحاضر": 8756, "▁العليا": 8757, "تيل": 8758, "▁حقق": 8759, "▁الضر": 8760, "▁تقلب": 8761, "▁عملا": 8762, "ريقي": 8763, "▁عميق": 8764, "▁متصل": 8765, "▁نذكر": 8766, "▁الحفاظ": 8767, "▁القوية": 8768, "ضرات": 8769, "▁أصعب": 8770, "▁الشبكة": 8771, "ناعات": 8772, "▁المين": 8773, "لتهم": 8774, "▁نكرة": 8775, "▁اذهب": 8776, "▁قولك": 8777, "▁اللجنة": 8778, "وفى": 8779, "اهيم": 8780, "فيلم": 8781, "نبية": 8782, "▁أثبت": 8783, "▁الشرعي": 8784, "▁الماتش": 8785, "ؤدي": 8786, "لانات": 8787, "▁اضرب": 8788, "▁فبدأ": 8789, "▁فالله": 8790, "▁الدقيقة": 8791, "▁الجر": 8792, "▁بغيت": 8793, "▁زواج": 8794, "▁الفنا": 8795, "▁قضايا": 8796, "ارين": 8797, "رجال": 8798, "▁منيح": 8799, "▁محددة": 8800, "▁بالطبع": 8801, "قتهم": 8802, "▁was": 8803, "▁فني": 8804, "▁مار": 8805, "فذة": 8806, "▁أدى": 8807, "▁ومعا": 8808, "▁تعملي": 8809, "▁الإطلاق": 8810, "▁الشهادة": 8811, "▁تدرس": 8812, "▁نتمنى": 8813, "▁الحصول": 8814, "رخ": 8815, "▁اتبع": 8816, "▁مسرح": 8817, "▁تستمر": 8818, "▁تعلمت": 8819, "ريفة": 8820, "▁بتز": 8821, "▁سات": 8822, "▁مربع": 8823, "▁الجولة": 8824, "▁الواحدة": 8825, "▁سيادة": 8826, "▁يستمر": 8827, "ous": 8828, "مالك": 8829, "ونالد": 8830, "▁رابع": 8831, "▁الممت": 8832, "▁عالمية": 8833, "lo": 8834, "شاكل": 8835, "▁يلبس": 8836, "▁الشرح": 8837, "▁ودخلت": 8838, "▁حمزة": 8839, "▁مكاف": 8840, "▁الدخل": 8841, "▁السطح": 8842, "▁التحول": 8843, "▁يخلق": 8844, "▁لفترة": 8845, "▁مستشفى": 8846, "▁أعز": 8847, "▁اخترت": 8848, "▁لكنني": 8849, "▁المصادر": 8850, "▁الخلية": 8851, "ناً": 8852, "▁الغي": 8853, "▁باين": 8854, "▁الاقل": 8855, "▁أحياناً": 8856, "▁الاشتراك": 8857, "▁ونزل": 8858, "غييرات": 8859, "▁التفا": 8860, "رتب": 8861, "شور": 8862, "▁500": 8863, "▁بقل": 8864, "▁مري": 8865, "▁أسوأ": 8866, "▁التض": 8867, "▁نصيب": 8868, "▁وارد": 8869, "▁النية": 8870, "▁الأطراف": 8871, "▁العرش": 8872, "▁وتعلم": 8873, "▁برق": 8874, "▁سلط": 8875, "▁تنام": 8876, "▁الأمنية": 8877, "▁بتاعتهم": 8878, "ak": 8879, "هاجم": 8880, "▁عوض": 8881, "▁وبتت": 8882, "▁الإخوان": 8883, "▁المنتجات": 8884, "▁قنا": 8885, "▁الظن": 8886, "▁داني": 8887, "▁يكبر": 8888, "▁الهيئة": 8889, "▁التوقيت": 8890, "طوير": 8891, "▁أصغر": 8892, "▁بتجيب": 8893, "▁مراكز": 8894, "▁مبسوطة": 8895, "قار": 8896, "عيدة": 8897, "▁رأيه": 8898, "▁التوحيد": 8899, "سرع": 8900, "▁ليب": 8901, "▁بجيب": 8902, "▁هالك": 8903, "▁القوي": 8904, "▁والرا": 8905, "▁المؤسسات": 8906, "ايع": 8907, "لاجة": 8908, "▁مارس": 8909, "▁ويجي": 8910, "▁اشترك": 8911, "حاق": 8912, "حسب": 8913, "▁جرى": 8914, "▁سيرة": 8915, "▁الكاملة": 8916, "دع": 8917, "دوز": 8918, "▁يحل": 8919, "▁السح": 8920, "▁فتنة": 8921, "▁مشاهدة": 8922, "▁لعند": 8923, "▁يسعد": 8924, "روز": 8925, "وضوح": 8926, "▁أطلق": 8927, "▁جالس": 8928, "▁الفهم": 8929, "▁عينيه": 8930, "▁الشريعة": 8931, "▁تضيع": 8932, "▁مجنون": 8933, "ag": 8934, "ans": 8935, "یست": 8936, "▁وتك": 8937, "▁بعضنا": 8938, "▁حركات": 8939, "▁ذكرنا": 8940, "▁بالكلام": 8941, "بتين": 8942, "▁لبي": 8943, "▁متس": 8944, "▁أخطر": 8945, "▁نبات": 8946, "يادات": 8947, "▁وأقول": 8948, "وزن": 8949, "ضاءة": 8950, "▁باخد": 8951, "▁موظف": 8952, "▁الغذا": 8953, "▁الذنوب": 8954, "▁الملفات": 8955, "لود": 8956, "▁بتأ": 8957, "▁سجن": 8958, "وتة": 8959, "▁الخس": 8960, "▁الملابس": 8961, "▁الخطر": 8962, "▁بعنوان": 8963, "ind": 8964, "▁تفر": 8965, "▁الصي": 8966, "▁فتاة": 8967, "▁فأن": 8968, "▁مفاج": 8969, "▁المرء": 8970, "▁عشرات": 8971, "▁الطلاق": 8972, "هان": 8973, "▁الْ": 8974, "▁هدى": 8975, "▁وحق": 8976, "▁from": 8977, "▁أسألك": 8978, "▁اعتمد": 8979, "▁الكار": 8980, "▁الجدول": 8981, "▁ومؤ": 8982, "▁النج": 8983, "▁تبكي": 8984, "▁دماغي": 8985, "▁بالناس": 8986, "▁حان": 8987, "▁قبر": 8988, "▁الباح": 8989, "▁تجارب": 8990, "▁الاستف": 8991, "▁العجوز": 8992, "▁نهائيا": 8993, "▁المواجهة": 8994, "خور": 8995, "سيط": 8996, "هول": 8997, "قولي": 8998, "▁الصيد": 8999, "▁المئة": 9000, "▁علمية": 9001, "▁العقلية": 9002, "ريبي": 9003, "جلترا": 9004, "▁تعبت": 9005, "▁تنجح": 9006, "▁قارة": 9007, "▁واول": 9008, "▁اسماء": 9009, "▁البرد": 9010, "▁سريعا": 9011, "▁وازاي": 9012, "▁السياق": 9013, "▁موافقة": 9014, "▁الجنسية": 9015, "دفع": 9016, "صدم": 9017, "▁رص": 9018, "▁ماين": 9019, "▁أوي": 9020, "▁كابت": 9021, "▁مدرس": 9022, "▁يبكي": 9023, "▁منتصف": 9024, "وجة": 9025, "▁دعي": 9026, "▁تأثر": 9027, "▁شغلك": 9028, "▁فبعد": 9029, "ايك": 9030, "▁اضع": 9031, "▁المرش": 9032, "▁كع": 9033, "هارة": 9034, "▁أهلك": 9035, "▁اسلام": 9036, "▁الرعب": 9037, "▁السمك": 9038, "ard": 9039, "قصة": 9040, "▁بنص": 9041, "▁فريد": 9042, "▁معدل": 9043, "▁بتوصل": 9044, "▁بيفكر": 9045, "▁تتعلق": 9046, "▁الصيني": 9047, "▁كثيراً": 9048, "▁العلامة": 9049, "وتا": 9050, "دائي": 9051, "▁الحوث": 9052, "▁اهداف": 9053, "▁أصدقاء": 9054, "▁واه": 9055, "▁برای": 9056, "▁فعلي": 9057, "▁مخلص": 9058, "▁الباك": 9059, "▁والأن": 9060, "▁تعملها": 9061, "شط": 9062, "▁ad": 9063, "▁الاك": 9064, "▁حضور": 9065, "▁فاذا": 9066, "▁جبريل": 9067, "▁الديمق": 9068, "▁التحليل": 9069, "▁الرسائل": 9070, "الجة": 9071, "▁الخبز": 9072, "▁الصعبة": 9073, "▁انظروا": 9074, "▁اقتصادي": 9075, "زاق": 9076, "▁رات": 9077, "▁الحظ": 9078, "▁الوات": 9079, "▁زوجتي": 9080, "▁مواطن": 9081, "▁الامام": 9082, "امح": 9083, "▁بی": 9084, "ضباط": 9085, "▁مئات": 9086, "▁قلتها": 9087, "▁الأخطاء": 9088, "▁الاحتيا": 9089, "مج": 9090, "▁21": 9091, "عدام": 9092, "لوي": 9093, "▁ومي": 9094, "▁أطول": 9095, "▁ثمان": 9096, "▁بغداد": 9097, "كاست": 9098, "▁ابا": 9099, "▁نعبد": 9100, "▁أحلام": 9101, "▁الأمل": 9102, "▁ونعمل": 9103, "▁البرازيل": 9104, "▁احس": 9105, "▁تتوقع": 9106, "قدام": 9107, "▁الشتاء": 9108, "سو": 9109, "رود": 9110, "قاذ": 9111, "▁الحوا": 9112, "▁يتوقف": 9113, "▁التقرير": 9114, "ast": 9115, "بطت": 9116, "ضاع": 9117, "▁آي": 9118, "سمين": 9119, "صورة": 9120, "▁فقر": 9121, "▁وارت": 9122, "▁الشارقة": 9123, "ديان": 9124, "▁محدد": 9125, "▁ونبدأ": 9126, "▁لتحقيق": 9127, "▁المساعد": 9128, "رتين": 9129, "نساء": 9130, "▁كيد": 9131, "▁لحم": 9132, "▁أخوه": 9133, "▁اريد": 9134, "▁أفراد": 9135, "▁اتخاذ": 9136, "▁المكونات": 9137, "▁فقرة": 9138, "▁بتصير": 9139, "▁لوحدها": 9140, "يريا": 9141, "▁حفلة": 9142, "▁الزيادة": 9143, "▁قديش": 9144, "▁مفيد": 9145, "نوين": 9146, "▁تتم": 9147, "▁مصل": 9148, "▁انتقل": 9149, "▁مسكين": 9150, "▁الطويل": 9151, "▁الشوارع": 9152, "خذه": 9153, "▁وتخ": 9154, "▁الرابط": 9155, "غلي": 9156, "لمه": 9157, "▁قيد": 9158, "▁الزه": 9159, "▁دعونا": 9160, "▁وأنتم": 9161, "▁تبي": 9162, "▁وعا": 9163, "▁البق": 9164, "▁العنف": 9165, "▁تحسين": 9166, "▁رياضة": 9167, "ide": 9168, "زار": 9169, "▁نكت": 9170, "▁جلسة": 9171, "▁عرفة": 9172, "▁بجانب": 9173, "ظه": 9174, "▁لرب": 9175, "▁يخش": 9176, "▁ابوه": 9177, "▁بواحد": 9178, "▁التطور": 9179, "▁عضو": 9180, "▁التحر": 9181, "▁مؤسسة": 9182, "▁اذن": 9183, "▁برم": 9184, "▁بوارو": 9185, "ok": 9186, "per": 9187, "▁تبص": 9188, "▁لقب": 9189, "▁الارج": 9190, "▁عمه": 9191, "▁وشر": 9192, "▁علمت": 9193, "▁وابن": 9194, "▁يعرض": 9195, "▁العسل": 9196, "▁الفارق": 9197, "▁تعلمون": 9198, "ink": 9199, "بحر": 9200, "ضير": 9201, "▁باذن": 9202, "▁ثقافة": 9203, "▁حسناً": 9204, "▁لطيفة": 9205, "▁للجميع": 9206, "وفت": 9207, "▁ضر": 9208, "▁ويرجع": 9209, "▁التعلم": 9210, "وعب": 9211, "▁اكمل": 9212, "▁بالث": 9213, "▁يضيع": 9214, "▁الفرع": 9215, "▁المجد": 9216, "▁النقل": 9217, "▁الأوكر": 9218, "ابية": 9219, "▁عوا": 9220, "▁صراط": 9221, "▁بتدخل": 9222, "▁اليابان": 9223, "كركم": 9224, "يييي": 9225, "▁اخويا": 9226, "▁بساطة": 9227, "▁ومنهم": 9228, "▁انتشار": 9229, "▁الفلسفة": 9230, "خصة": 9231, "▁زل": 9232, "▁ميد": 9233, "▁تفرق": 9234, "▁هسا": 9235, "▁تنفع": 9236, "▁خطوط": 9237, "▁هتاخد": 9238, "▁عايزها": 9239, "▁مشاريع": 9240, "▁ولماذا": 9241, "▁لآ": 9242, "▁بتفكر": 9243, "املات": 9244, "▁تشرب": 9245, "▁جابت": 9246, "▁ندير": 9247, "▁العالية": 9248, "▁تعيد": 9249, "▁شغله": 9250, "ass": 9251, "َيْ": 9252, "▁بنش": 9253, "▁نعت": 9254, "▁درهم": 9255, "▁ولأن": 9256, "▁القطر": 9257, "▁الكذب": 9258, "▁تتخيل": 9259, "▁وبالت": 9260, "▁وبالم": 9261, "▁الشروط": 9262, "▁دی": 9263, "▁قار": 9264, "▁وبر": 9265, "تروني": 9266, "▁بيسمع": 9267, "▁مفاجأة": 9268, "▁التفاعل": 9269, "▁الصينية": 9270, "▁سافر": 9271, "▁لبيك": 9272, "▁بالراحة": 9273, "▁الأوروبية": 9274, "▁جدول": 9275, "▁أصحابه": 9276, "جبك": 9277, "▁بدت": 9278, "▁مود": 9279, "▁هرب": 9280, "▁تشبه": 9281, "▁لمصر": 9282, "▁وهما": 9283, "▁يلاقي": 9284, "خليك": 9285, "عرفها": 9286, "▁عندوش": 9287, "▁وقاعد": 9288, "▁والتاني": 9289, "▁اتحاد": 9290, "▁الشرقية": 9291, "▁الأي": 9292, "▁لندن": 9293, "▁يرزق": 9294, "▁ابنها": 9295, "▁ديالك": 9296, "▁0": 9297, "جور": 9298, "▁الفيل": 9299, "▁كافية": 9300, "▁هتشوف": 9301, "▁البشرة": 9302, "وووووووووووووووو": 9303, "هاها": 9304, "▁فالإ": 9305, "▁يسعى": 9306, "▁التحت": 9307, "▁تمثيل": 9308, "▁الرسمي": 9309, "▁الجزائري": 9310, "ؤكد": 9311, "ذاك": 9312, "▁نقدم": 9313, "▁يهتم": 9314, "▁الاحداث": 9315, "▁الطاولة": 9316, "▁حرق": 9317, "▁إلهي": 9318, "▁تؤدي": 9319, "▁أصوات": 9320, "▁القطع": 9321, "▁ليف": 9322, "▁هذيك": 9323, "▁اللحم": 9324, "▁الطبية": 9325, "ريه": 9326, "برني": 9327, "▁استعداد": 9328, "كور": 9329, "▁300": 9330, "▁ابقى": 9331, "▁هينفع": 9332, "▁العباد": 9333, "▁الأسعار": 9334, "▁الدكتورة": 9335, "جيت": 9336, "▁دوب": 9337, "▁نصل": 9338, "▁بحبك": 9339, "▁فاضل": 9340, "▁مميزة": 9341, "▁اكتشاف": 9342, "▁لحضراتكم": 9343, "ضحية": 9344, "▁دست": 9345, "▁وحت": 9346, "▁الصحفي": 9347, "جبت": 9348, "راخ": 9349, "▁بارد": 9350, "▁داره": 9351, "▁سعاد": 9352, "▁دينار": 9353, "▁للإنسان": 9354, "ناق": 9355, "▁60": 9356, "▁سيم": 9357, "▁نية": 9358, "▁يعط": 9359, "▁تؤمن": 9360, "▁أمريكي": 9361, "▁السبعة": 9362, "▁يوتيوب": 9363, "جاع": 9364, "▁الأسر": 9365, "▁الفرس": 9366, "▁المساء": 9367, "عدي": 9368, "▁امور": 9369, "▁عليش": 9370, "▁فؤاد": 9371, "▁متعود": 9372, "▁والمص": 9373, "▁سقوط": 9374, "▁سعادة": 9375, "▁التفاوض": 9376, "▁خز": 9377, "▁رمز": 9378, "▁مكر": 9379, "▁ولأ": 9380, "▁قدير": 9381, "▁أعطيك": 9382, "▁بتحكي": 9383, "▁نقوله": 9384, "▁بالحياة": 9385, "نط": 9386, "▁my": 9387, "▁أذن": 9388, "▁اغلب": 9389, "▁جواه": 9390, "▁الفراغ": 9391, "غرق": 9392, "الله": 9393, "▁كرام": 9394, "▁بتبدأ": 9395, "▁نفسيا": 9396, "▁الصراط": 9397, "▁الفساد": 9398, "▁القرارات": 9399, "كى": 9400, "قلل": 9401, "▁الرز": 9402, "▁ماشية": 9403, "▁أمريكية": 9404, "▁ثورة": 9405, "▁جود": 9406, "▁الأرج": 9407, "▁مليان": 9408, "▁الطيبة": 9409, "ئم": 9410, "زنس": 9411, "عجل": 9412, "▁صام": 9413, "▁بتحس": 9414, "▁هدوء": 9415, "ضط": 9416, "نال": 9417, "▁أعت": 9418, "▁بلغت": 9419, "▁الحجم": 9420, "▁وبارك": 9421, "ّة": 9422, "وشال": 9423, "▁المحلي": 9424, "▁يقود": 9425, "▁يشارك": 9426, "▁يعملون": 9427, "▁الاربعة": 9428, "▁المهارات": 9429, "▁بالتفصيل": 9430, "▁لث": 9431, "▁لض": 9432, "لقاء": 9433, "مينا": 9434, "▁لقوا": 9435, "▁وعارف": 9436, "داش": 9437, "همية": 9438, "▁يعبد": 9439, "▁افكار": 9440, "▁الصناعية": 9441, "فيك": 9442, "▁اثر": 9443, "▁حملة": 9444, "▁عبده": 9445, "▁أتوقع": 9446, "▁والاج": 9447, "▁السويس": 9448, "▁الفلاني": 9449, "▁المخدرات": 9450, "▁المغربية": 9451, "جابات": 9452, "▁تكسب": 9453, "▁الغلط": 9454, "▁الفرنسية": 9455, "رياء": 9456, "▁بطي": 9457, "▁بلش": 9458, "▁للر": 9459, "▁أقوم": 9460, "▁تشير": 9461, "▁جبال": 9462, "▁ماسي": 9463, "ضور": 9464, "▁جيه": 9465, "▁سلبي": 9466, "▁فعلى": 9467, "▁واصل": 9468, "▁مشوار": 9469, "▁لمرحلة": 9470, "قطاع": 9471, "▁بطن": 9472, "▁الاند": 9473, "وعى": 9474, "ايما": 9475, "▁مون": 9476, "▁جزءا": 9477, "▁خدمات": 9478, "▁زعلان": 9479, "▁والمؤ": 9480, "▁بمد": 9481, "▁وأشهد": 9482, "▁المؤسسة": 9483, "▁التجارية": 9484, "كمن": 9485, "▁شح": 9486, "▁سرا": 9487, "▁فمع": 9488, "▁الطلبة": 9489, "زيل": 9490, "▁بكام": 9491, "▁يديك": 9492, "▁الرضا": 9493, "▁تسجيل": 9494, "▁مصطلح": 9495, "▁المعاني": 9496, "▁الفص": 9497, "▁مسار": 9498, "▁يهدي": 9499, "▁يعلمون": 9500, "ack": 9501, "▁حزن": 9502, "راعية": 9503, "▁هذين": 9504, "▁مصرية": 9505, "▁الباحث": 9506, "▁المجموع": 9507, "▁نوف": 9508, "▁امان": 9509, "▁تفرج": 9510, "▁وجهك": 9511, "▁حدي": 9512, "▁برجع": 9513, "▁أوراق": 9514, "▁مستني": 9515, "▁موافق": 9516, "▁كورونا": 9517, "زح": 9518, "فد": 9519, "الغة": 9520, "▁كورس": 9521, "▁الجوي": 9522, "▁وأخيرا": 9523, "▁الترتيب": 9524, "قفل": 9525, "▁بتجي": 9526, "▁تدعم": 9527, "▁إعلان": 9528, "▁وبرضو": 9529, "▁يتقدم": 9530, "▁جت": 9531, "▁الجوية": 9532, "▁منتجات": 9533, "▁فئة": 9534, "▁لمست": 9535, "▁كاميرا": 9536, "▁القائمة": 9537, "▁الاستراتيجية": 9538, "اسب": 9539, "ثرت": 9540, "▁but": 9541, "▁تدرك": 9542, "▁جنبي": 9543, "▁وحيد": 9544, "▁ومحمد": 9545, "▁مقاومة": 9546, "▁مكتوبة": 9547, "فروض": 9548, "▁وتر": 9549, "▁غالب": 9550, "▁الرجيم": 9551, "▁مذه": 9552, "▁بحبه": 9553, "▁للمد": 9554, "▁يولد": 9555, "▁خليفة": 9556, "وروا": 9557, "▁أبد": 9558, "▁خود": 9559, "▁لانت": 9560, "▁إنشاء": 9561, "▁اخبار": 9562, "▁تحويل": 9563, "▁يناير": 9564, "▁اليقين": 9565, "خليه": 9566, "▁طير": 9567, "▁وحسن": 9568, "▁ثابتة": 9569, "▁ضربات": 9570, "▁ذكره": 9571, "▁رهيبة": 9572, "هزة": 9573, "▁زيه": 9574, "▁فأخذ": 9575, "▁الاربع": 9576, "▁الضربة": 9577, "▁جلد": 9578, "ستجرام": 9579, "▁معناته": 9580, "▁النهائية": 9581, "لفة": 9582, "▁نقف": 9583, "▁ووص": 9584, "▁اخرج": 9585, "▁التصرف": 9586, "▁الحقوق": 9587, "زلي": 9588, "رابة": 9589, "▁رجلي": 9590, "▁رحيم": 9591, "▁المحور": 9592, "يتك": 9593, "▁أعمق": 9594, "▁الضم": 9595, "▁اوصل": 9596, "▁جسمه": 9597, "▁سليمة": 9598, "▁للعمل": 9599, "▁يصح": 9600, "▁جولة": 9601, "▁اللحمة": 9602, "▁چی": 9603, "شيات": 9604, "▁حاسب": 9605, "▁الاقت": 9606, "▁تفاعل": 9607, "▁داخلية": 9608, "▁الدراسات": 9609, "ber": 9610, "امية": 9611, "▁ميلي": 9612, "▁انتاج": 9613, "▁صاروا": 9614, "▁يبقوا": 9615, "بص": 9616, "ُوا": 9617, "▁te": 9618, "▁باد": 9619, "▁بيل": 9620, "▁يشرب": 9621, "▁الميك": 9622, "▁تربيع": 9623, "▁ياسين": 9624, "خية": 9625, "▁الغيب": 9626, "▁ونرجع": 9627, "▁حسابات": 9628, "▁المباشر": 9629, "▁المبتدأ": 9630, "ich": 9631, "وكس": 9632, "ترول": 9633, "▁شيئاً": 9634, "▁البركة": 9635, "▁بطبيعة": 9636, "ؤه": 9637, "▁تبيع": 9638, "▁تغيرت": 9639, "▁نانسي": 9640, "جازات": 9641, "▁أخوك": 9642, "▁مزيد": 9643, "▁يفرق": 9644, "▁التوازن": 9645, "يار": 9646, "كلات": 9647, "▁أور": 9648, "▁تسيب": 9649, "▁فضلك": 9650, "▁مدري": 9651, "▁وأهل": 9652, "▁بالمية": 9653, "▁المنظومة": 9654, "▁وضح": 9655, "▁تخصص": 9656, "▁تمنع": 9657, "▁اجابة": 9658, "هِ": 9659, "لوت": 9660, "▁جرح": 9661, "▁تنساش": 9662, "▁دماغه": 9663, "▁هياخد": 9664, "▁المتابعة": 9665, "مانا": 9666, "▁إير": 9667, "▁عزم": 9668, "▁صحاب": 9669, "▁هجيب": 9670, "▁يحرم": 9671, "▁تجارة": 9672, "▁اللسان": 9673, "▁المستمر": 9674, "فتر": 9675, "▁عس": 9676, "▁جير": 9677, "▁نحل": 9678, "▁وسا": 9679, "▁وفهم": 9680, "▁الجهد": 9681, "▁الضعف": 9682, "▁مبنية": 9683, "▁اعط": 9684, "▁ترق": 9685, "▁توب": 9686, "▁ركب": 9687, "▁روب": 9688, "▁نيت": 9689, "▁تركت": 9690, "▁عماد": 9691, "▁النسبة": 9692, "▁التأثير": 9693, "َع": 9694, "يدر": 9695, "▁جئت": 9696, "▁ناخذ": 9697, "▁نفعل": 9698, "▁الحجة": 9699, "▁العملة": 9700, "▁حذر": 9701, "▁ديه": 9702, "▁وجع": 9703, "▁مايك": 9704, "▁سلمان": 9705, "ديش": 9706, "▁أنتو": 9707, "▁رياض": 9708, "▁الفاصل": 9709, "▁الصالحين": 9710, "اعم": 9711, "صره": 9712, "▁علمه": 9713, "▁غلطة": 9714, "▁ممثل": 9715, "▁ويروح": 9716, "▁الجهات": 9717, "▁الجنوبية": 9718, "الوا": 9719, "▁حيت": 9720, "▁روز": 9721, "▁التاريخية": 9722, "▁شاعر": 9723, "▁الفشل": 9724, "▁فإحنا": 9725, "سيح": 9726, "كري": 9727, "ستها": 9728, "▁حسان": 9729, "▁وفقا": 9730, "▁الصوم": 9731, "▁ليكون": 9732, "▁الأحوال": 9733, "▁الحيوان": 9734, "افلة": 9735, "▁ويخ": 9736, "▁نخلص": 9737, "▁تتابع": 9738, "▁رعاية": 9739, "▁قصيدة": 9740, "▁لحاجة": 9741, "عكس": 9742, "باحة": 9743, "وقعة": 9744, "▁رفعت": 9745, "▁مطار": 9746, "▁اجتماعية": 9747, "▁الشمالية": 9748, "ئاسة": 9749, "▁أرا": 9750, "▁ضحك": 9751, "▁انكم": 9752, "▁تشغل": 9753, "▁تشاهد": 9754, "▁التقدم": 9755, "عربي": 9756, "▁لمش": 9757, "▁نمت": 9758, "▁رجاء": 9759, "▁حكينا": 9760, "▁اسكندرية": 9761, "غف": 9762, "ولف": 9763, "▁مشاع": 9764, "ire": 9765, "عور": 9766, "وجب": 9767, "نتها": 9768, "▁امل": 9769, "▁شبك": 9770, "▁كيب": 9771, "▁عيون": 9772, "▁ورجعت": 9773, "فلان": 9774, "▁الجوع": 9775, "▁حيوان": 9776, "▁أساسية": 9777, "▁بالظبط": 9778, "▁الجماهير": 9779, "▁اوف": 9780, "▁زعل": 9781, "one": 9782, "فقوا": 9783, "▁باه": 9784, "▁وأص": 9785, "▁زينب": 9786, "▁عقله": 9787, "▁للقناة": 9788, "▁الاعلام": 9789, "نده": 9790, "ظهار": 9791, "▁عمق": 9792, "▁العش": 9793, "▁خطاب": 9794, "▁أجزاء": 9795, "▁أرقام": 9796, "▁تكرار": 9797, "▁مطالب": 9798, "▁هيطلع": 9799, "▁وانتو": 9800, "شغل": 9801, "ئتين": 9802, "▁ذنب": 9803, "▁اضغط": 9804, "▁الاط": 9805, "▁الصع": 9806, "▁والمح": 9807, "روحة": 9808, "▁سار": 9809, "▁بيسم": 9810, "▁الفائدة": 9811, "طش": 9812, "▁بوش": 9813, "▁أشهد": 9814, "▁ثواني": 9815, "▁شايفه": 9816, "▁مجددا": 9817, "▁الحضور": 9818, "▁وأصحاب": 9819, "▁الأجهزة": 9820, "مق": 9821, "لتقي": 9822, "▁يتس": 9823, "▁فنية": 9824, "▁خارجية": 9825, "▁العصبية": 9826, "ضراء": 9827, "▁كثر": 9828, "▁يتي": 9829, "▁تسبب": 9830, "▁العظم": 9831, "▁خرجوا": 9832, "▁فيهاش": 9833, "▁متوسط": 9834, "▁والام": 9835, "▁التغ": 9836, "▁الصدمة": 9837, "▁وكأنها": 9838, "▁مضى": 9839, "▁أكرم": 9840, "▁هشام": 9841, "▁وظيف": 9842, "▁أمامه": 9843, "▁الطير": 9844, "▁الفير": 9845, "▁خلاله": 9846, "▁ماك": 9847, "▁مصرح": 9848, "▁سفيان": 9849, "▁وتروح": 9850, "▁مرحباً": 9851, "▁يتجاوز": 9852, "▁التهديد": 9853, "ime": 9854, "بيين": 9855, "▁تتح": 9856, "وائية": 9857, "▁العوا": 9858, "▁وإياك": 9859, "▁الشعوب": 9860, "▁العميل": 9861, "▁فبيقول": 9862, "▁مقابلة": 9863, "▁الاولاني": 9864, "▁27": 9865, "داقة": 9866, "قدمه": 9867, "▁عظم": 9868, "▁ودول": 9869, "▁علمنا": 9870, "▁مليانة": 9871, "َت": 9872, "ايش": 9873, "عمق": 9874, "▁سط": 9875, "رحمة": 9876, "وسين": 9877, "▁بتف": 9878, "▁تخل": 9879, "▁شير": 9880, "▁والل": 9881, "▁الكاف": 9882, "▁لازمة": 9883, "▁التصريح": 9884, "لامه": 9885, "▁فليس": 9886, "اوف": 9887, "▁بوز": 9888, "▁هتقدر": 9889, "▁الاستمرار": 9890, "زج": 9891, "▁وللأ": 9892, "▁السيف": 9893, "▁تعرفش": 9894, "زوا": 9895, "▁حسي": 9896, "▁كوا": 9897, "▁أهلها": 9898, "▁تتفرج": 9899, "▁ويعرف": 9900, "▁بيساعد": 9901, "▁الاختلاف": 9902, "ies": 9903, "نوات": 9904, "هلاك": 9905, "▁أهو": 9906, "▁بولي": 9907, "▁نركز": 9908, "▁الخميس": 9909, "▁الشيعة": 9910, "صيلة": 9911, "▁أنس": 9912, "▁لأخ": 9913, "▁تقرب": 9914, "▁أبيض": 9915, "▁أسرة": 9916, "▁جاني": 9917, "▁خاطئة": 9918, "▁مروان": 9919, "▁استهداف": 9920, "▁المهندس": 9921, "ويين": 9922, "نترنت": 9923, "▁أمرا": 9924, "▁بذكر": 9925, "▁تخدم": 9926, "▁الهوية": 9927, "▁متابعة": 9928, "▁المبادرة": 9929, "▁المستخدم": 9930, "▁لعد": 9931, "ماعية": 9932, "▁عقلي": 9933, "▁فراغ": 9934, "▁ييجي": 9935, "▁ومعرف": 9936, "▁مير": 9937, "▁أبعد": 9938, "▁يبعد": 9939, "▁توفيق": 9940, "▁منطقي": 9941, "راث": 9942, "▁الكورس": 9943, "▁ملاحظة": 9944, "▁الأسواق": 9945, "▁التالتة": 9946, "جيا": 9947, "▁أصاب": 9948, "▁بينت": 9949, "▁وفعل": 9950, "▁وتاني": 9951, "▁بتاعهم": 9952, "▁استثمار": 9953, "▁العراقية": 9954, "▁la": 9955, "▁القلم": 9956, "▁بالمد": 9957, "▁تحتها": 9958, "▁قيادة": 9959, "▁الكافي": 9960, "▁ودع": 9961, "بعه": 9962, "▁حش": 9963, "▁عزة": 9964, "▁بشدة": 9965, "▁يؤكد": 9966, "▁بخمسة": 9967, "▁سفينة": 9968, "▁مملكة": 9969, "▁بتستخدم": 9970, "▁الاستقرار": 9971, "بيس": 9972, "نهم": 9973, "هاي": 9974, "▁جذ": 9975, "▁مجل": 9976, "▁زيرو": 9977, "▁مشهورة": 9978, "▁سحب": 9979, "▁like": 9980, "▁الخش": 9981, "▁شراء": 9982, "▁أحتاج": 9983, "▁الطائرات": 9984, "يكم": 9985, "ويتر": 9986, "▁فهد": 9987, "▁كاش": 9988, "▁وبد": 9989, "▁تكبر": 9990, "▁صريح": 9991, "▁الترج": 9992, "▁عجبني": 9993, "▁والأس": 9994, "▁أكتوبر": 9995, "▁المحبة": 9996, "ماش": 9997, "بيان": 9998, "▁ترو": 9999, "ناتهم": 10000, "▁الدب": 10001, "▁تحسب": 10002, "▁ياخذ": 10003, "▁عوامل": 10004, "▁الغربي": 10005, "▁الصواريخ": 10006, "▁المحافظة": 10007, "َر": 10008, "قاع": 10009, "able": 10010, "رسال": 10011, "▁جاز": 10012, "▁تجوز": 10013, "▁تلبس": 10014, "▁صوتي": 10015, "▁بتقدم": 10016, "▁المحلية": 10017, "زول": 10018, "قيب": 10019, "▁جحى": 10020, "▁أقصى": 10021, "▁ومثل": 10022, "▁يفرح": 10023, "▁العفو": 10024, "▁الكلا": 10025, "▁اللبن": 10026, "▁سابقة": 10027, "ِل": 10028, "فران": 10029, "قييم": 10030, "▁بلعب": 10031, "▁قومي": 10032, "▁ماركت": 10033, "▁منصور": 10034, "▁بالمئة": 10035, "orm": 10036, "حام": 10037, "▁يث": 10038, "طيكم": 10039, "▁تطلق": 10040, "▁ضربت": 10041, "▁البعد": 10042, "▁بتنزل": 10043, "▁بتعمله": 10044, "▁المستهلك": 10045, "نعة": 10046, "▁اخدت": 10047, "▁بترجع": 10048, "▁الحليب": 10049, "▁والسنة": 10050, "▁خمستاشر": 10051, "واجد": 10052, "▁ورفع": 10053, "كُ": 10054, "طيل": 10055, "▁فهت": 10056, "▁هكا": 10057, "▁تحدد": 10058, "▁ميلا": 10059, "▁المدة": 10060, "▁اتناشر": 10061, "حاس": 10062, "▁28": 10063, "▁بالنا": 10064, "▁الرغبة": 10065, "سمه": 10066, "يبا": 10067, "تاشر": 10068, "▁آثار": 10069, "▁قادم": 10070, "▁ملوش": 10071, "▁اللايك": 10072, "اظ": 10073, "راعي": 10074, "▁نخش": 10075, "▁أعود": 10076, "▁اقرب": 10077, "▁المظ": 10078, "▁تسعى": 10079, "قليمية": 10080, "▁بحالة": 10081, "▁حلوين": 10082, "▁الكومي": 10083, "▁طار": 10084, "▁ملو": 10085, "▁موض": 10086, "▁وفض": 10087, "▁اسود": 10088, "▁مالا": 10089, "▁المسار": 10090, "▁المادية": 10091, "▁أحدث": 10092, "▁بلدي": 10093, "▁شاشة": 10094, "▁انشاء": 10095, "▁بيقدم": 10096, "▁توجيه": 10097, "▁عباده": 10098, "▁التاسع": 10099, "مأن": 10100, "وشة": 10101, "▁لأم": 10102, "▁انتش": 10103, "▁بداي": 10104, "▁هوية": 10105, "▁الاشت": 10106, "▁الستات": 10107, "▁حالياً": 10108, "▁فاهمين": 10109, "▁المشترك": 10110, "▁أسود": 10111, "▁الحصة": 10112, "▁البقرة": 10113, "▁الفندق": 10114, "▁العقيدة": 10115, "▁تعدي": 10116, "▁يرفض": 10117, "▁الوحد": 10118, "▁المدرس": 10119, "غض": 10120, "▁صغ": 10121, "▁فرع": 10122, "▁الاخرى": 10123, "▁يستفيد": 10124, "طرح": 10125, "قود": 10126, "▁ادارة": 10127, "▁رأسها": 10128, "▁الساعات": 10129, "▁الطائرة": 10130, "▁بتر": 10131, "▁سرع": 10132, "▁البحرين": 10133, "▁رأينا": 10134, "▁المبارك": 10135, "▁وبالفعل": 10136, "▁35": 10137, "داول": 10138, "▁وأه": 10139, "▁روما": 10140, "▁لكنهم": 10141, "▁القاتل": 10142, "▁يمد": 10143, "▁البس": 10144, "▁أحاول": 10145, "▁اضافة": 10146, "▁الجوا": 10147, "▁بينكم": 10148, "▁هنبدأ": 10149, "▁الخيار": 10150, "▁رايحين": 10151, "▁الطويلة": 10152, "▁الشوك": 10153, "▁النجا": 10154, "▁ايمان": 10155, "▁قلبها": 10156, "▁لقيته": 10157, "▁الغريبة": 10158, "▁المشاريع": 10159, "الما": 10160, "▁سنتي": 10161, "▁يحسب": 10162, "▁بطاقة": 10163, "▁النصوص": 10164, "▁المصاري": 10165, "▁وتحديدا": 10166, "اهم": 10167, "لوف": 10168, "▁أحمر": 10169, "▁جهود": 10170, "▁دعنا": 10171, "▁الحكي": 10172, "غفار": 10173, "▁فرس": 10174, "▁فنان": 10175, "▁قعدت": 10176, "▁لكني": 10177, "▁يكشف": 10178, "▁أعلنت": 10179, "▁وفتحة": 10180, "▁الأزهر": 10181, "▁الرياح": 10182, "▁وند": 10183, "▁بهدف": 10184, "▁شرطة": 10185, "▁يقضي": 10186, "▁بشتغل": 10187, "▁وعندها": 10188, "▁التصعيد": 10189, "فعت": 10190, "▁خشب": 10191, "▁الاو": 10192, "▁رسمية": 10193, "▁هتكلم": 10194, "▁الاختبار": 10195, "تيال": 10196, "راما": 10197, "لوهم": 10198, "▁اصلي": 10199, "▁اليو": 10200, "▁فيصل": 10201, "▁نادر": 10202, "▁قبيلة": 10203, "▁المعدة": 10204, "▁يشوفوا": 10205, "▁العمارة": 10206, "▁امو": 10207, "▁بديت": 10208, "▁نذهب": 10209, "▁اعترف": 10210, "▁نوعية": 10211, "▁المؤتمر": 10212, "cc": 10213, "ينو": 10214, "▁ربيع": 10215, "▁وتبدأ": 10216, "▁والثاني": 10217, "▁المنافسة": 10218, "▁استراتيجي": 10219, "▁لمح": 10220, "▁يدع": 10221, "▁يركز": 10222, "▁ينقل": 10223, "▁يوفق": 10224, "▁وإياكم": 10225, "▁أصدقائي": 10226, "كرين": 10227, "▁السند": 10228, "فيز": 10229, "سمها": 10230, "▁قيا": 10231, "▁فيكون": 10232, "نوع": 10233, "▁همه": 10234, "▁يرج": 10235, "▁رحنا": 10236, "▁نجرب": 10237, "▁الممر": 10238, "▁بتساعد": 10239, "▁وبيكون": 10240, "براطورية": 10241, "now": 10242, "راري": 10243, "▁وخط": 10244, "▁صيام": 10245, "▁يعاني": 10246, "▁العاطفي": 10247, "▁المزرعة": 10248, "تاب": 10249, "زله": 10250, "▁آسف": 10251, "▁مصير": 10252, "▁الجنس": 10253, "▁الطول": 10254, "▁المحب": 10255, "▁عديدة": 10256, "▁كريمة": 10257, "▁وأصبح": 10258, "▁اربعين": 10259, "▁الدولا": 10260, "▁يقدروا": 10261, "زوجة": 10262, "▁حبه": 10263, "▁حصة": 10264, "▁احتاج": 10265, "▁يتعرض": 10266, "▁الجهاد": 10267, "▁المرمى": 10268, "▁وعملوا": 10269, "▁بتدي": 10270, "باد": 10271, "قافي": 10272, "▁خفت": 10273, "▁عمك": 10274, "▁بهاي": 10275, "▁هاخد": 10276, "▁التمر": 10277, "▁وكثير": 10278, "مكانيات": 10279, "▁محط": 10280, "▁مخط": 10281, "▁يوليو": 10282, "▁نتعامل": 10283, "▁جاد": 10284, "▁سأت": 10285, "▁إمتى": 10286, "▁النعم": 10287, "▁واجعل": 10288, "▁إض": 10289, "صدار": 10290, "لالة": 10291, "▁لحمة": 10292, "▁الصال": 10293, "▁رجعنا": 10294, "▁هريرة": 10295, "وتش": 10296, "▁مرش": 10297, "▁بتسمع": 10298, "▁وكلمة": 10299, "▁التربة": 10300, "▁بالعالم": 10301, "▁یا": 10302, "ence": 10303, "سيوم": 10304, "▁سيل": 10305, "▁قبول": 10306, "▁وتحت": 10307, "▁أشكال": 10308, "▁الشباك": 10309, "▁للدولة": 10310, "اهية": 10311, "▁ارب": 10312, "▁ونع": 10313, "مارين": 10314, "▁ساحة": 10315, "▁اتكلمنا": 10316, "انها": 10317, "▁يدك": 10318, "▁فأول": 10319, "▁أقوله": 10320, "▁منتهى": 10321, "▁السادة": 10322, "وجي": 10323, "ائها": 10324, "▁سطر": 10325, "▁يضر": 10326, "▁أيوب": 10327, "▁شافت": 10328, "▁قضاء": 10329, "▁المهام": 10330, "▁الألعاب": 10331, "pl": 10332, "▁الأر": 10333, "▁بيروت": 10334, "▁يقولي": 10335, "▁شغالين": 10336, "▁مادريد": 10337, "▁والسيا": 10338, "▁المقبلة": 10339, "▁المشركين": 10340, "صين": 10341, "▁وني": 10342, "خليها": 10343, "▁cont": 10344, "▁تقتل": 10345, "▁ليلى": 10346, "▁يتصل": 10347, "▁وجوده": 10348, "طالب": 10349, "▁برش": 10350, "▁اشهر": 10351, "▁تفيد": 10352, "▁حقها": 10353, "▁طهران": 10354, "▁المؤلف": 10355, "افه": 10356, "رقة": 10357, "▁وشكرا": 10358, "▁الحجاج": 10359, "▁شق": 10360, "▁عاط": 10361, "▁امسك": 10362, "▁تشوفه": 10363, "▁يتوقع": 10364, "▁قادرين": 10365, "▁كاملين": 10366, "▁هنلاقي": 10367, "▁مطر": 10368, "▁يسر": 10369, "▁تربط": 10370, "▁آخرين": 10371, "▁المعاد": 10372, "▁عبدالع": 10373, "▁التسويق": 10374, "▁المفترض": 10375, "بول": 10376, "ذكاء": 10377, "▁غام": 10378, "▁واث": 10379, "▁علاق": 10380, "▁ووصل": 10381, "▁about": 10382, "▁مكانة": 10383, "▁هتروح": 10384, "▁التراث": 10385, "▁الضربات": 10386, "▁المصطلح": 10387, "صبحت": 10388, "▁بكتب": 10389, "▁يسكن": 10390, "▁الفري": 10391, "▁المشاهدة": 10392, "▁الموظفين": 10393, "اليف": 10394, "جعله": 10395, "يلها": 10396, "▁بته": 10397, "▁شين": 10398, "▁وري": 10399, "▁ببقى": 10400, "▁للسي": 10401, "▁ملها": 10402, "▁أعضاء": 10403, "▁صالحا": 10404, "▁المسائل": 10405, "َب": 10406, "▁if": 10407, "▁تدعو": 10408, "▁افلام": 10409, "كمال": 10410, "▁اياه": 10411, "▁فالي": 10412, "▁الاهل": 10413, "بون": 10414, "طوع": 10415, "▁cl": 10416, "▁دف": 10417, "تكار": 10418, "▁موز": 10419, "▁لأهل": 10420, "▁بالنفس": 10421, "ost": 10422, "▁صفقة": 10423, "▁ناوي": 10424, "▁نلعب": 10425, "▁ومصر": 10426, "▁أمراض": 10427, "▁الكيان": 10428, "▁المفاجأة": 10429, "▁طن": 10430, "▁بوت": 10431, "▁بيص": 10432, "▁ويك": 10433, "▁حكيم": 10434, "▁يشهد": 10435, "▁أسامة": 10436, "▁المقت": 10437, "▁وطلعت": 10438, "▁المصنع": 10439, "▁الكومنت": 10440, "قبة": 10441, "▁حبا": 10442, "▁بوجه": 10443, "▁حصلش": 10444, "▁خليل": 10445, "سكرايب": 10446, "▁الموص": 10447, "▁زن": 10448, "▁جاري": 10449, "▁أحوال": 10450, "مني": 10451, "▁إل": 10452, "حكام": 10453, "▁وإي": 10454, "▁كارت": 10455, "▁يشير": 10456, "▁دولية": 10457, "▁عليكي": 10458, "▁فاكرة": 10459, "▁وتقدر": 10460, "▁وحاجة": 10461, "ثى": 10462, "عنی": 10463, "▁منهما": 10464, "▁نشوفه": 10465, "▁العطاء": 10466, "▁الكمية": 10467, "int": 10468, "▁فقير": 10469, "▁الصار": 10470, "▁الصدر": 10471, "▁صاحبة": 10472, "▁التنفس": 10473, "كيك": 10474, "▁تؤثر": 10475, "▁جلست": 10476, "▁لشخص": 10477, "▁یعنی": 10478, "▁البوا": 10479, "هههههههه": 10480, "▁سؤ": 10481, "▁بزي": 10482, "▁معم": 10483, "▁ببطء": 10484, "▁قادة": 10485, "▁هاتي": 10486, "▁بيسأل": 10487, "▁فرحان": 10488, "▁كوريا": 10489, "▁تعجب": 10490, "▁تفوق": 10491, "▁حواليه": 10492, "راوي": 10493, "كرون": 10494, "▁عنكم": 10495, "▁مرتب": 10496, "▁تصميم": 10497, "▁مؤتمر": 10498, "▁مكاني": 10499, "▁البلاء": 10500, "▁الحلول": 10501, "بض": 10502, "بحاث": 10503, "دهما": 10504, "صروا": 10505, "وجين": 10506, "▁إشي": 10507, "▁فقل": 10508, "▁وعبد": 10509, "بيها": 10510, "▁عرش": 10511, "▁هسه": 10512, "▁اهلي": 10513, "▁السلا": 10514, "▁انتهي": 10515, "▁الخيال": 10516, "▁المبنى": 10517, "▁الإجراءات": 10518, "▁السيرة": 10519, "▁الإعلان": 10520, "▁الموارد": 10521, "اتيح": 10522, "▁ستجد": 10523, "▁الرسم": 10524, "▁مجالات": 10525, "▁استفهام": 10526, "▁الخريطة": 10527, "زيا": 10528, "اركت": 10529, "▁حلق": 10530, "▁وتف": 10531, "▁يسا": 10532, "▁عليم": 10533, "▁يخسر": 10534, "▁الجيم": 10535, "▁طويلا": 10536, "▁فاللي": 10537, "▁الألوان": 10538, "▁غم": 10539, "▁كح": 10540, "▁واخر": 10541, "▁طيبين": 10542, "▁مقتنع": 10543, "▁المصيبة": 10544, "▁Th": 10545, "عرفه": 10546, "غطية": 10547, "▁رأسي": 10548, "▁بيتنا": 10549, "▁ويقوم": 10550, "▁الناصر": 10551, "▁الإنجليزية": 10552, "قلال": 10553, "▁بجي": 10554, "▁تظن": 10555, "▁ربا": 10556, "▁يتأ": 10557, "▁ملفات": 10558, "▁الدائرة": 10559, "ئها": 10560, "▁زود": 10561, "▁عجز": 10562, "▁شخصا": 10563, "▁مرسي": 10564, "▁يدعم": 10565, "▁الفئة": 10566, "▁تحرير": 10567, "▁جلاله": 10568, "▁للفيديو": 10569, "▁pe": 10570, "رحها": 10571, "▁بدء": 10572, "▁أقبل": 10573, "▁توازن": 10574, "▁الاسرائيلي": 10575, "▁متض": 10576, "▁تناول": 10577, "▁لقينا": 10578, "مئن": 10579, "▁شده": 10580, "▁يتق": 10581, "▁تليف": 10582, "▁توفي": 10583, "▁خيال": 10584, "▁مقال": 10585, "▁يبعث": 10586, "▁المجالات": 10587, "▁فز": 10588, "▁عبيد": 10589, "▁الملي": 10590, "▁يعرفه": 10591, "▁الريال": 10592, "▁مشتركة": 10593, "▁إفريقيا": 10594, "rou": 10595, "▁جزر": 10596, "▁عرق": 10597, "▁بتحط": 10598, "▁جاوب": 10599, "▁قراء": 10600, "▁ولده": 10601, "▁وبناء": 10602, "▁انتهاء": 10603, "▁وحا": 10604, "▁بنية": 10605, "▁ذنوب": 10606, "▁السمع": 10607, "▁المعي": 10608, "▁فايدة": 10609, "▁تحديات": 10610, "▁غن": 10611, "▁حطت": 10612, "▁سياق": 10613, "▁اطلاق": 10614, "▁السلف": 10615, "▁الطبقة": 10616, "▁الفلاح": 10617, "▁اجتماعي": 10618, "▁الأوقات": 10619, "▁وبالنسبة": 10620, "كسل": 10621, "▁عسل": 10622, "▁تميز": 10623, "▁نغير": 10624, "▁أحكام": 10625, "▁خطورة": 10626, "▁معلوم": 10627, "▁الأخوة": 10628, "▁المرضى": 10629, "▁الأجواء": 10630, "فته": 10631, "▁فاك": 10632, "روجين": 10633, "هادات": 10634, "▁بقوا": 10635, "▁والو": 10636, "▁اتباع": 10637, "▁خلقنا": 10638, "▁وترجع": 10639, "▁الواضح": 10640, "سرعة": 10641, "▁تقصد": 10642, "▁تكشف": 10643, "▁فقدت": 10644, "▁فيعني": 10645, "▁لاحظت": 10646, "▁الأقصى": 10647, "َم": 10648, "▁کرد": 10649, "▁الخم": 10650, "▁ورائ": 10651, "▁أتحدث": 10652, "▁الصرف": 10653, "▁المشي": 10654, "▁خديجة": 10655, "▁وتكلم": 10656, "▁محترمة": 10657, "عها": 10658, "بارك": 10659, "سيوس": 10660, "طيات": 10661, "▁لحق": 10662, "▁لمد": 10663, "▁دينه": 10664, "▁شافوا": 10665, "یل": 10666, "ذنب": 10667, "شفيات": 10668, "▁تكلمت": 10669, "▁مرتبة": 10670, "▁مكانك": 10671, "▁وارجع": 10672, "ابين": 10673, "قولة": 10674, "▁قلم": 10675, "▁لنت": 10676, "▁ومو": 10677, "▁اصدق": 10678, "▁الهل": 10679, "▁فاتح": 10680, "▁القبض": 10681, "▁سبحانك": 10682, "▁مباريات": 10683, "▁الاحترام": 10684, "▁المباريات": 10685, "طبع": 10686, "قاطع": 10687, "▁بتغ": 10688, "▁الغد": 10689, "▁يدخلوا": 10690, "▁السلطات": 10691, "▁الكابتن": 10692, "▁وأحيانا": 10693, "مارك": 10694, "واخر": 10695, "▁مقص": 10696, "▁يفقد": 10697, "▁توكيد": 10698, "▁وصارت": 10699, "▁الباطل": 10700, "▁الأبطال": 10701, "▁السلسلة": 10702, "برها": 10703, "▁مركب": 10704, "▁فاكرين": 10705, "َنْ": 10706, "قدار": 10707, "▁تتك": 10708, "▁احتياجات": 10709, "بخ": 10710, "خرية": 10711, "▁متجوز": 10712, "▁بلب": 10713, "قافية": 10714, "▁الزل": 10715, "▁تعبد": 10716, "▁خلقت": 10717, "▁متين": 10718, "▁أبنائ": 10719, "▁اختفى": 10720, "▁يبقاش": 10721, "▁يحافظ": 10722, "▁الشنطة": 10723, "▁محدودة": 10724, "▁الأبناء": 10725, "▁الاستفهام": 10726, "▁جنس": 10727, "▁كلش": 10728, "▁بيضة": 10729, "▁خبير": 10730, "▁مهند": 10731, "▁نطاق": 10732, "▁الملوك": 10733, "▁العوامل": 10734, "▁المعارضة": 10735, "ثلا": 10736, "▁كيل": 10737, "▁علام": 10738, "▁اماكن": 10739, "▁بشوية": 10740, "▁صالحة": 10741, "▁الظلام": 10742, "▁انتظار": 10743, "▁الإشارة": 10744, "روري": 10745, "وادث": 10746, "▁اوب": 10747, "▁مشا": 10748, "▁know": 10749, "▁الأثر": 10750, "▁وشوية": 10751, "▁وواحد": 10752, "▁الجلسة": 10753, "قولك": 10754, "نازل": 10755, "▁أسرار": 10756, "▁الحمل": 10757, "▁الرسل": 10758, "▁مراته": 10759, "▁هتطلع": 10760, "▁اللازم": 10761, "▁درب": 10762, "▁عجل": 10763, "▁بمكان": 10764, "يلة": 10765, "سيين": 10766, "▁لبن": 10767, "▁very": 10768, "▁اقسم": 10769, "▁الوش": 10770, "▁تأمل": 10771, "▁ملوك": 10772, "▁الأدوات": 10773, "▁الزيارة": 10774, "▁المصلحة": 10775, "مح": 10776, "ايير": 10777, "▁الضي": 10778, "▁بحرف": 10779, "▁حولها": 10780, "▁متعلق": 10781, "▁مسافر": 10782, "جرب": 10783, "فيل": 10784, "لول": 10785, "حسان": 10786, "▁ممل": 10787, "▁تعمله": 10788, "▁بالعمل": 10789, "▁المنظمة": 10790, "ثا": 10791, "زود": 10792, "كروا": 10793, "▁اخوي": 10794, "▁ونعم": 10795, "▁الروس": 10796, "▁النظرية": 10797, "▁الإلكترونية": 10798, "▁بتا": 10799, "▁حني": 10800, "▁بديل": 10801, "▁تبعد": 10802, "▁شعري": 10803, "▁العقا": 10804, "▁ملعقة": 10805, "▁استعمل": 10806, "▁الديني": 10807, "▁مؤسسات": 10808, "▁رود": 10809, "▁تشكل": 10810, "▁تاريخية": 10811, "▁إيد": 10812, "▁يلم": 10813, "▁نبيل": 10814, "▁يقلب": 10815, "▁الثامن": 10816, "▁تقولوا": 10817, "▁الموجودين": 10818, "▁طع": 10819, "امير": 10820, "رامية": 10821, "▁راسك": 10822, "▁راسه": 10823, "▁ماري": 10824, "▁استغفر": 10825, "▁بموضوع": 10826, "▁الاعمال": 10827, "▁الخلافة": 10828, "لاتي": 10829, "▁يضل": 10830, "▁أترك": 10831, "▁دولا": 10832, "▁زايد": 10833, "▁نعيم": 10834, "▁يلزم": 10835, "▁الممث": 10836, "▁تشغيل": 10837, "▁فريدة": 10838, "▁العدالة": 10839, "▁نل": 10840, "▁بوس": 10841, "▁فلت": 10842, "▁أطلب": 10843, "▁يكره": 10844, "▁الشاف": 10845, "▁بالقناة": 10846, "▁درج": 10847, "▁يبد": 10848, "▁جوزي": 10849, "▁قائم": 10850, "▁محسن": 10851, "▁الشوت": 10852, "▁معقدة": 10853, "▁التراب": 10854, "▁المنصة": 10855, "▁محاضرة": 10856, "جدد": 10857, "▁كإ": 10858, "حداث": 10859, "شرطة": 10860, "▁ردة": 10861, "▁لأس": 10862, "▁تاخذ": 10863, "▁حاتم": 10864, "▁قطعت": 10865, "▁مثله": 10866, "▁عقلية": 10867, "▁وعليه": 10868, "غرام": 10869, "▁بشار": 10870, "▁وتحط": 10871, "▁طلعنا": 10872, "▁بالنهاية": 10873, "▁اذ": 10874, "جربة": 10875, "▁اسف": 10876, "▁وشفت": 10877, "▁أراضي": 10878, "▁التلف": 10879, "▁للحياة": 10880, "ريده": 10881, "▁ضخم": 10882, "▁الوع": 10883, "▁خدنا": 10884, "▁درست": 10885, "▁مرعب": 10886, "▁أمرنا": 10887, "▁الشوط": 10888, "▁يكونش": 10889, "▁التقنية": 10890, "فرغ": 10891, "▁إز": 10892, "مهوري": 10893, "▁ليلا": 10894, "▁there": 10895, "▁ساكنة": 10896, "▁للآخر": 10897, "▁الأصوات": 10898, "aus": 10899, "اهة": 10900, "▁حية": 10901, "▁ريح": 10902, "▁وبط": 10903, "▁والمو": 10904, "عاة": 10905, "▁توت": 10906, "▁وحن": 10907, "▁تصدر": 10908, "▁أجهزة": 10909, "▁تمتلك": 10910, "▁النبوة": 10911, "▁الشياطين": 10912, "ماط": 10913, "قاعد": 10914, "▁زرع": 10915, "▁تركي": 10916, "▁وبما": 10917, "▁اقوله": 10918, "▁بوضوح": 10919, "▁الطاعة": 10920, "▁المضيق": 10921, "ck": 10922, "یت": 10923, "▁أحضر": 10924, "▁تخسر": 10925, "▁مانع": 10926, "▁يربط": 10927, "▁عندكش": 10928, "▁مؤخرا": 10929, "▁نتعرف": 10930, "▁45": 10931, "وائي": 10932, "▁شات": 10933, "▁محر": 10934, "واتها": 10935, "ويورك": 10936, "▁يحيا": 10937, "▁مسيرة": 10938, "▁ارتباط": 10939, "▁الغلام": 10940, "صص": 10941, "نيها": 10942, "▁مقر": 10943, "▁بسمع": 10944, "▁سهلا": 10945, "▁نجمع": 10946, "▁وجمع": 10947, "▁ويشوف": 10948, "▁السياحة": 10949, "▁القبائل": 10950, "▁المساجد": 10951, "▁الكائنات": 10952, "شيد": 10953, "وزر": 10954, "▁تفقد": 10955, "▁مشاه": 10956, "▁وعاد": 10957, "▁أرجوك": 10958, "▁اثناء": 10959, "▁واربعة": 10960, "▁المقابلة": 10961, "▁العثمانية": 10962, "▁يذ": 10963, "▁وأبو": 10964, "▁يومك": 10965, "▁أخويا": 10966, "▁بنتها": 10967, "▁تتكون": 10968, "▁حيكون": 10969, "خوان": 10970, "▁باج": 10971, "▁رحي": 10972, "بيعات": 10973, "▁نواصل": 10974, "▁تتجاوز": 10975, "▁معادلة": 10976, "صن": 10977, "▁حلي": 10978, "▁منس": 10979, "▁رؤوس": 10980, "▁فإنك": 10981, "▁يكسر": 10982, "▁الأوراق": 10983, "▁الرياضية": 10984, "ضبط": 10985, "ندر": 10986, "▁So": 10987, "▁معن": 10988, "▁يما": 10989, "▁تضيف": 10990, "▁عميقة": 10991, "▁قولوا": 10992, "▁وايضا": 10993, "▁وكلما": 10994, "▁بالضرورة": 10995, "ace": 10996, "ركض": 10997, "▁man": 10998, "▁بوص": 10999, "▁سمك": 11000, "▁اداء": 11001, "▁تنقل": 11002, "▁هذاك": 11003, "▁التون": 11004, "▁مختار": 11005, "▁التجارب": 11006, "▁بالقرآن": 11007, "▁ردت": 11008, "▁منف": 11009, "▁وصد": 11010, "▁البال": 11011, "▁باز": 11012, "▁متف": 11013, "▁نمر": 11014, "▁تحولت": 11015, "▁وبدون": 11016, "▁الوسطى": 11017, "▁اسماعيل": 11018, "▁الميدان": 11019, "▁اا": 11020, "▁لتق": 11021, "▁وقر": 11022, "▁تسير": 11023, "▁احداث": 11024, "▁فقه": 11025, "▁حولك": 11026, "▁أحسنت": 11027, "▁ودائما": 11028, "▁بالسلام": 11029, "وايا": 11030, "▁طاهر": 11031, "▁هقوله": 11032, "▁هيقدر": 11033, "ase": 11034, "▁بلس": 11035, "▁ورم": 11036, "▁ديما": 11037, "▁الوادي": 11038, "▁بالرغم": 11039, "▁للمنتخب": 11040, "قيس": 11041, "▁ترح": 11042, "▁صغر": 11043, "▁فخر": 11044, "▁كبرت": 11045, "▁أخطاء": 11046, "طعم": 11047, "▁بعدم": 11048, "▁وقيل": 11049, "▁يأمر": 11050, "غية": 11051, "▁بألف": 11052, "▁حدوث": 11053, "▁صدقة": 11054, "▁لآخر": 11055, "▁نقعد": 11056, "▁وكله": 11057, "▁الجزر": 11058, "▁طريقه": 11059, "▁متابع": 11060, "وهات": 11061, "▁هتك": 11062, "▁مزبوط": 11063, "▁والبي": 11064, "▁اعتبار": 11065, "▁الكفار": 11066, "▁والانت": 11067, "شئ": 11068, "ويف": 11069, "▁أخاف": 11070, "▁بلغة": 11071, "▁وبنفس": 11072, "▁وحدها": 11073, "▁المسؤولين": 11074, "فتة": 11075, "▁وأج": 11076, "▁اصغر": 11077, "▁يصرف": 11078, "▁السلع": 11079, "▁بتمنى": 11080, "▁تعزيز": 11081, "▁قاموا": 11082, "▁نلاقي": 11083, "▁الساحة": 11084, "▁مسؤولي": 11085, "▁الأحزاب": 11086, "انج": 11087, "فان": 11088, "▁كيم": 11089, "▁استر": 11090, "▁توفر": 11091, "▁خدوا": 11092, "▁روحك": 11093, "▁وادي": 11094, "▁ووقف": 11095, "▁السطر": 11096, "▁مسائل": 11097, "▁بالقوة": 11098, "▁الافلام": 11099, "▁الحادثة": 11100, "▁tw": 11101, "▁ابوك": 11102, "▁تكلفة": 11103, "▁التحتية": 11104, "دار": 11105, "▁أمت": 11106, "▁دهب": 11107, "مكانية": 11108, "▁بيقوم": 11109, "▁تقنية": 11110, "▁وأكيد": 11111, "▁الاساس": 11112, "▁الدهون": 11113, "▁الأمانة": 11114, "▁التنظيم": 11115, "▁الحماية": 11116, "حار": 11117, "▁جعلت": 11118, "▁ساكت": 11119, "▁ننسى": 11120, "▁الحرم": 11121, "▁بالوقت": 11122, "▁لاش": 11123, "▁يتك": 11124, "▁إلها": 11125, "▁دينك": 11126, "▁صدمة": 11127, "▁بيخرج": 11128, "▁مليئة": 11129, "▁استقرار": 11130, "▁no": 11131, "▁تقا": 11132, "▁الوث": 11133, "▁نیست": 11134, "▁وصلى": 11135, "▁which": 11136, "▁تمييز": 11137, "▁لنفسي": 11138, "▁السوبر": 11139, "▁انتصار": 11140, "▁استخدمت": 11141, "حاسب": 11142, "▁متد": 11143, "▁ملم": 11144, "▁يلق": 11145, "انوية": 11146, "▁اليا": 11147, "▁حاصل": 11148, "▁القليل": 11149, "▁الصناعي": 11150, "▁المراجعة": 11151, "ديال": 11152, "▁خبي": 11153, "▁بأنك": 11154, "ليكيشن": 11155, "▁الدفع": 11156, "ضرت": 11157, "راطي": 11158, "وجيه": 11159, "▁يمس": 11160, "▁اوعى": 11161, "▁يشرح": 11162, "▁عالمي": 11163, "ساك": 11164, "port": 11165, "طالي": 11166, "▁توم": 11167, "▁ونظ": 11168, "دارات": 11169, "▁اليم": 11170, "▁تلقي": 11171, "▁زعيم": 11172, "▁يسرق": 11173, "▁وتمانين": 11174, "لج": 11175, "▁تراب": 11176, "▁عصير": 11177, "▁فقام": 11178, "▁وليش": 11179, "▁تحديث": 11180, "▁المطلق": 11181, "-4": 11182, "▁نفذ": 11183, "هارات": 11184, "▁جالي": 11185, "▁حقيق": 11186, "▁اطفال": 11187, "▁خصائص": 11188, "▁الهدوء": 11189, "▁الوصفة": 11190, "▁مستويات": 11191, "▁ma": 11192, "▁pr": 11193, "الهم": 11194, "ابرات": 11195, "▁ويلا": 11196, "▁عجيبة": 11197, "▁استطعت": 11198, "▁الإطار": 11199, "▁نستعين": 11200, "آآآآآآآآ": 11201, "صان": 11202, "بيحة": 11203, "ظيما": 11204, "▁المم": 11205, "▁صدقني": 11206, "▁للموا": 11207, "▁الضغوط": 11208, "▁مسلمين": 11209, "ايح": 11210, "ضطر": 11211, "طبيق": 11212, "فاجئ": 11213, "وفية": 11214, "▁دوم": 11215, "▁ويص": 11216, "▁أعطى": 11217, "▁فاني": 11218, "▁وامت": 11219, "▁يونغ": 11220, "▁الشرف": 11221, "▁المفه": 11222, "▁التزام": 11223, "▁الجدار": 11224, "▁الشعبية": 11225, "اطا": 11226, "قلك": 11227, "وضاع": 11228, "▁مضم": 11229, "▁طبيع": 11230, "▁هاجر": 11231, "▁قادمة": 11232, "▁العمود": 11233, "▁تستفيد": 11234, "▁المانيا": 11235, "كاك": 11236, "▁إنني": 11237, "▁الرؤ": 11238, "▁بشرط": 11239, "▁مجمع": 11240, "▁تعاون": 11241, "▁رونالد": 11242, "وضيح": 11243, "▁تراه": 11244, "▁ملهاش": 11245, "▁يتقبل": 11246, "رال": 11247, "ستمر": 11248, "▁ناب": 11249, "▁أشار": 11250, "▁جوهر": 11251, "▁ولكم": 11252, "▁ولها": 11253, "▁المنش": 11254, "▁وكلهم": 11255, "▁الكيميا": 11256, "قس": 11257, "▁جده": 11258, "▁متت": 11259, "▁هالأ": 11260, "▁يفيد": 11261, "▁المجا": 11262, "▁البسيط": 11263, "▁وأعتقد": 11264, "▁ودايما": 11265, "ماتي": 11266, "▁أسد": 11267, "▁جبنا": 11268, "▁لايف": 11269, "▁يبغى": 11270, "▁يطلعوا": 11271, "▁الدولار": 11272, "بينا": 11273, "▁بيف": 11274, "▁تول": 11275, "▁عزيزة": 11276, "▁اقتصاد": 11277, "▁والحياة": 11278, "ang": 11279, "بوطة": 11280, "رهاب": 11281, "▁سماع": 11282, "▁لأنا": 11283, "▁أغنية": 11284, "▁ويجعل": 11285, "▁ويجيب": 11286, "▁خاد": 11287, "▁أنعمت": 11288, "نث": 11289, "خار": 11290, "ذرة": 11291, "ress": 11292, "برية": 11293, "خفاض": 11294, "ينهم": 11295, "▁نحي": 11296, "▁للان": 11297, "▁السكن": 11298, "▁صاحبك": 11299, "▁الصغار": 11300, "▁القطعة": 11301, "▁المسئولية": 11302, "ائنا": 11303, "ابتة": 11304, "▁خطط": 11305, "▁شكلك": 11306, "▁وفوق": 11307, "▁يقيم": 11308, "▁فترات": 11309, "▁مشغول": 11310, "▁يعقوب": 11311, "تيها": 11312, "خلوا": 11313, "داعي": 11314, "▁سيأتي": 11315, "▁يدعون": 11316, "تمة": 11317, "▁شل": 11318, "دامة": 11319, "▁نات": 11320, "▁تعبر": 11321, "▁حادث": 11322, "▁عملة": 11323, "▁الزكاء": 11324, "▁التمييز": 11325, "▁السابعة": 11326, "▁26": 11327, "▁لذ": 11328, "▁فاد": 11329, "▁كافر": 11330, "▁أحدكم": 11331, "▁صباحا": 11332, "▁والتأ": 11333, "▁اللقطة": 11334, "▁الملكة": 11335, "▁والعلم": 11336, "▁الأهمية": 11337, "▁الرجالة": 11338, "▁الكربون": 11339, "على": 11340, "▁ثي": 11341, "وباي": 11342, "▁ويل": 11343, "▁أثار": 11344, "▁بلجي": 11345, "▁تكسر": 11346, "▁سوبر": 11347, "▁كرسي": 11348, "▁يراه": 11349, "▁المفرد": 11350, "▁التفسير": 11351, "▁المدافع": 11352, "▁بصفة": 11353, "▁جناح": 11354, "▁يصدر": 11355, "▁الجيد": 11356, "▁سهولة": 11357, "▁شغلات": 11358, "▁يؤمنون": 11359, "َو": 11360, "سمت": 11361, "ical": 11362, "فيها": 11363, "▁بوي": 11364, "▁تتخ": 11365, "▁حميد": 11366, "▁دافع": 11367, "▁لوحة": 11368, "▁أبويا": 11369, "▁إبليس": 11370, "▁تحافظ": 11371, "▁مدارس": 11372, "▁ملامح": 11373, "▁الملكية": 11374, "َد": 11375, "ult": 11376, "قبض": 11377, "▁غس": 11378, "اطرة": 11379, "▁بمث": 11380, "▁دلي": 11381, "مامات": 11382, "▁الكس": 11383, "▁ترون": 11384, "▁جورج": 11385, "▁ولله": 11386, "▁يركب": 11387, "▁فتحنا": 11388, "▁نعملها": 11389, "▁محاولات": 11390, "شيت": 11391, "نتهي": 11392, "▁ألي": 11393, "▁حلا": 11394, "▁فاب": 11395, "▁لسي": 11396, "▁تحته": 11397, "▁وأمر": 11398, "ord": 11399, "صلات": 11400, "ورهم": 11401, "▁أمو": 11402, "▁أمسك": 11403, "▁مرأة": 11404, "▁يكذب": 11405, "▁الجنين": 11406, "▁الخطوط": 11407, "▁المحطة": 11408, "▁ياخدوا": 11409, "ويم": 11410, "▁إك": 11411, "▁يُ": 11412, "قيات": 11413, "▁صيد": 11414, "▁لهو": 11415, "▁وإذ": 11416, "كتابة": 11417, "▁أذهب": 11418, "▁الحرس": 11419, "▁الجودة": 11420, "▁جهل": 11421, "▁نمط": 11422, "▁وحس": 11423, "▁يور": 11424, "▁آمين": 11425, "▁يتصرف": 11426, "قله": 11427, "▁تذ": 11428, "▁ببي": 11429, "▁فجر": 11430, "▁مضي": 11431, "▁الشف": 11432, "▁إحساس": 11433, "▁التام": 11434, "▁الريح": 11435, "▁العائ": 11436, "▁بأنهم": 11437, "▁بالمر": 11438, "▁منافس": 11439, "▁مبادرة": 11440, "▁وعليكم": 11441, "▁والعالم": 11442, "▁المسؤولية": 11443, "آة": 11444, "بري": 11445, "▁هيش": 11446, "▁مدخل": 11447, "▁محكمة": 11448, "▁المتحدث": 11449, "لث": 11450, "▁حرص": 11451, "▁مخل": 11452, "▁شامل": 11453, "▁قاسم": 11454, "▁ناكل": 11455, "▁يسهل": 11456, "▁الأكس": 11457, "▁كاملا": 11458, "▁استش": 11459, "▁الذنب": 11460, "▁مقبول": 11461, "عوة": 11462, "مائر": 11463, "▁هجر": 11464, "▁خليت": 11465, "▁قلته": 11466, "▁الفول": 11467, "▁الحفلة": 11468, "غن": 11469, "▁زلت": 11470, "▁إيدي": 11471, "▁سرية": 11472, "▁يشغل": 11473, "▁الغرض": 11474, "▁المسك": 11475, "▁تمرين": 11476, "▁صواريخ": 11477, "▁البرلمان": 11478, "so": 11479, "دير": 11480, "▁طلبة": 11481, "▁اتجوز": 11482, "▁برأيك": 11483, "▁بعمله": 11484, "▁البنوك": 11485, "▁الإحساس": 11486, "▁199": 11487, "▁اتع": 11488, "▁جرس": 11489, "▁وبم": 11490, "▁يهرب": 11491, "▁النجم": 11492, "▁جديدا": 11493, "▁النيابة": 11494, "توك": 11495, "ويها": 11496, "▁أصد": 11497, "▁القل": 11498, "▁النه": 11499, "▁وخمس": 11500, "▁بناخد": 11501, "▁معاوية": 11502, "شخاص": 11503, "▁طرد": 11504, "▁ويج": 11505, "▁صيغة": 11506, "▁الأكا": 11507, "▁النحو": 11508, "▁محدود": 11509, "▁واشوف": 11510, "▁ويمشي": 11511, "▁الطيران": 11512, "▁الوالدين": 11513, "▁غر": 11514, "▁دعني": 11515, "▁انطلق": 11516, "▁تشترك": 11517, "▁فيسبوك": 11518, "اطس": 11519, "وفا": 11520, "جيال": 11521, "▁هاو": 11522, "▁حدثت": 11523, "▁الكاب": 11524, "▁عاصمة": 11525, "▁تشوفها": 11526, "▁القانونية": 11527, "زيك": 11528, "غوا": 11529, "بتنا": 11530, "▁تضغط": 11531, "▁احساس": 11532, "▁جائزة": 11533, "▁متخصص": 11534, "▁يومئذ": 11535, "▁المتعلقة": 11536, "يبر": 11537, "▁انح": 11538, "▁ومب": 11539, "▁دواء": 11540, "▁وهلأ": 11541, "▁أخوتي": 11542, "▁الابن": 11543, "▁تنمية": 11544, "▁سينما": 11545, "▁العقوبات": 11546, "ble": 11547, "▁150": 11548, "▁حذف": 11549, "▁جوزك": 11550, "▁وردت": 11551, "▁تعرفه": 11552, "▁لجميع": 11553, "▁ويأتي": 11554, "▁ويقدر": 11555, "شاب": 11556, "نجح": 11557, "▁عسى": 11558, "حاولة": 11559, "▁بوست": 11560, "▁دوره": 11561, "▁وافق": 11562, "▁ونحط": 11563, "▁المرح": 11564, "▁سيارات": 11565, "▁التعليق": 11566, "فش": 11567, "فاح": 11568, "▁اعم": 11569, "▁ركن": 11570, "▁سمو": 11571, "▁اضيف": 11572, "▁نزول": 11573, "▁هالح": 11574, "▁عاوزين": 11575, "فيا": 11576, "ائزة": 11577, "كومة": 11578, "▁بيأ": 11579, "▁أخذنا": 11580, "▁لوحدك": 11581, "▁الأمين": 11582, "▁الأطباء": 11583, "▁المنتخبات": 11584, "▁80": 11585, "ؤمنين": 11586, "▁لونه": 11587, "▁أولاده": 11588, "▁والسؤال": 11589, "▁الالتزام": 11590, "نفذ": 11591, "▁نبص": 11592, "▁time": 11593, "▁زراعة": 11594, "▁نلاحظ": 11595, "▁تحياتي": 11596, "نتك": 11597, "▁أحط": 11598, "ديمية": 11599, "▁مدين": 11600, "▁ينسى": 11601, "▁أطراف": 11602, "▁للذين": 11603, "▁العيون": 11604, "▁الاعداد": 11605, "▁المخلوق": 11606, "▁المكتبة": 11607, "غري": 11608, "جزاء": 11609, "▁دية": 11610, "▁كاد": 11611, "▁متن": 11612, "▁تصلح": 11613, "▁غنية": 11614, "▁التفت": 11615, "▁العمق": 11616, "▁عنهما": 11617, "▁يونيو": 11618, "الالالال": 11619, "شرون": 11620, "▁ضيق": 11621, "▁لير": 11622, "▁وبش": 11623, "▁كسرة": 11624, "▁هالي": 11625, "▁وستة": 11626, "▁وفضل": 11627, "▁يسقط": 11628, "▁فإنها": 11629, "▁فتقول": 11630, "تيه": 11631, "شكيل": 11632, "▁اجا": 11633, "▁عشت": 11634, "عملها": 11635, "▁الخز": 11636, "▁الخل": 11637, "▁بأول": 11638, "▁بفعل": 11639, "▁ظهره": 11640, "▁يضمن": 11641, "▁اثنان": 11642, "▁والشي": 11643, "▁المادي": 11644, "▁بالمست": 11645, "▁الأسلوب": 11646, "▁كره": 11647, "▁كنز": 11648, "▁نقد": 11649, "▁أمها": 11650, "▁بأمر": 11651, "▁إجراء": 11652, "▁مالوش": 11653, "▁فالناس": 11654, "▁الطفولة": 11655, "ليان": 11656, "▁وجاي": 11657, "▁النصف": 11658, "▁ثالثة": 11659, "▁حاجتين": 11660, "ثون": 11661, "سيد": 11662, "علام": 11663, "▁بله": 11664, "▁تكر": 11665, "▁للث": 11666, "▁واثق": 11667, "▁وبينه": 11668, "▁الذهاب": 11669, "مروا": 11670, "▁بنست": 11671, "▁جوال": 11672, "▁السورة": 11673, "▁تصريحات": 11674, "▁ودلوقتي": 11675, "البة": 11676, "راكم": 11677, "▁فضلا": 11678, "▁أمثلة": 11679, "▁لليوم": 11680, "▁المشكلات": 11681, "▁غزوة": 11682, "▁قياس": 11683, "▁كتبه": 11684, "▁للتع": 11685, "▁الفرحة": 11686, "▁نشوفها": 11687, "▁انتخابات": 11688, "كَ": 11689, "رحه": 11690, "يشن": 11691, "نافس": 11692, "▁شئت": 11693, "▁صاب": 11694, "▁قضى": 11695, "▁comp": 11696, "▁أرجو": 11697, "▁ديها": 11698, "▁الكوا": 11699, "▁تفضلي": 11700, "▁غيرهم": 11701, "بتهم": 11702, "▁جوع": 11703, "▁طور": 11704, "ثمرين": 11705, "▁استمع": 11706, "▁البصل": 11707, "▁بلدنا": 11708, "▁خريطة": 11709, "▁رسوله": 11710, "▁استمرت": 11711, "▁حاولوا": 11712, "▁ماينفعش": 11713, "لله": 11714, "▁our": 11715, "▁2025": 11716, "▁سمير": 11717, "▁فكنت": 11718, "▁إليكم": 11719, "▁القار": 11720, "▁للمرة": 11721, "▁يتزوج": 11722, "▁النقاش": 11723, "▁بيقولها": 11724, "▁الإنترنت": 11725, "يتي": 11726, "عمية": 11727, "▁يخد": 11728, "▁تنطق": 11729, "▁شعبان": 11730, "▁الاستخ": 11731, "▁الفضاء": 11732, "▁يعملها": 11733, "ديس": 11734, "ركه": 11735, "وبه": 11736, "بارح": 11737, "▁فرو": 11738, "▁اسباب": 11739, "▁اصبحت": 11740, "▁المفر": 11741, "▁يدافع": 11742, "▁المراه": 11743, "▁الافكار": 11744, "30": 11745, "راش": 11746, "واتك": 11747, "▁اكو": 11748, "▁بلع": 11749, "▁صبح": 11750, "▁ماش": 11751, "▁يتد": 11752, "▁تتعب": 11753, "▁تشهد": 11754, "▁مصار": 11755, "▁يشكل": 11756, "▁القرب": 11757, "فاصل": 11758, "▁جوي": 11759, "▁عطي": 11760, "▁غاد": 11761, "▁لتس": 11762, "▁الكث": 11763, "▁بلاس": 11764, "▁كنتي": 11765, "▁اللفظ": 11766, "فول": 11767, "▁فأي": 11768, "▁مسح": 11769, "▁نضرب": 11770, "▁الجول": 11771, "▁حديثة": 11772, "▁الشغلة": 11773, "▁الممثل": 11774, "▁حلقتنا": 11775, "▁السادسة": 11776, "▁الفقراء": 11777, "▁بيكونوا": 11778, "▁الظالمين": 11779, "لاط": 11780, "وفيت": 11781, "▁كير": 11782, "▁بازن": 11783, "▁مخطط": 11784, "▁وصدق": 11785, "▁مقدار": 11786, "▁الانجلي": 11787, "▁نيويورك": 11788, "ضن": 11789, "▁رع": 11790, "▁فى": 11791, "▁چه": 11792, "دران": 11793, "▁كرب": 11794, "▁بيخش": 11795, "▁حمار": 11796, "▁الباطن": 11797, "▁In": 11798, "▁بإن": 11799, "▁وسن": 11800, "▁يجا": 11801, "لاميذ": 11802, "▁وراي": 11803, "▁يسيب": 11804, "▁إعلام": 11805, "▁التوقع": 11806, "▁المراحل": 11807, "بائ": 11808, "فجر": 11809, "هيل": 11810, "ريال": 11811, "▁اير": 11812, "▁وخير": 11813, "▁متعلقة": 11814, "▁التركية": 11815, "▁إغ": 11816, "غيرا": 11817, "▁طاق": 11818, "▁أصول": 11819, "▁تاجر": 11820, "▁الجثة": 11821, "▁مدافع": 11822, "▁التركي": 11823, "▁ممارسة": 11824, "مئ": 11825, "شيش": 11826, "موني": 11827, "▁مدن": 11828, "▁نزع": 11829, "▁الدر": 11830, "▁بدقة": 11831, "▁خسرت": 11832, "▁شهيد": 11833, "▁الروب": 11834, "▁بنعرف": 11835, "▁عرفوا": 11836, "▁فيبقى": 11837, "▁التلات": 11838, "▁الغداء": 11839, "لر": 11840, "طعام": 11841, "▁أكو": 11842, "▁الاث": 11843, "▁بنزل": 11844, "▁جسمي": 11845, "▁سادة": 11846, "▁مضطر": 11847, "▁العيب": 11848, "▁بتعلم": 11849, "▁بوتين": 11850, "▁الحملة": 11851, "▁الرقمية": 11852, "▁الأحاديث": 11853, "ff": 11854, "داه": 11855, "طاني": 11856, "▁رعب": 11857, "▁ومخ": 11858, "اذبية": 11859, "▁محضر": 11860, "▁ومعه": 11861, "▁الكاس": 11862, "▁تتذكر": 11863, "▁تحتوي": 11864, "▁تعرضت": 11865, "▁الاحمر": 11866, "▁للمرأة": 11867, "▁وإيران": 11868, "▁الإيجابية": 11869, "رقص": 11870, "▁هض": 11871, "وفير": 11872, "▁ابنة": 11873, "▁وأهم": 11874, "▁ماتوا": 11875, "▁نختار": 11876, "▁وجهها": 11877, "▁النواب": 11878, "ause": 11879, "ويتش": 11880, "▁خرب": 11881, "▁يتطلب": 11882, "▁معاملة": 11883, "مش": 11884, "ضلة": 11885, "▁عائل": 11886, "▁الوين": 11887, "▁ذاتها": 11888, "ِين": 11889, "اتكم": 11890, "▁قفل": 11891, "▁يحيى": 11892, "▁أبوها": 11893, "▁الخضر": 11894, "▁دلالة": 11895, "▁الأسلحة": 11896, "ماق": 11897, "▁bec": 11898, "▁ترس": 11899, "▁تضر": 11900, "▁دلت": 11901, "▁ابيض": 11902, "▁تتصل": 11903, "▁للمع": 11904, "▁البري": 11905, "▁تكوني": 11906, "▁نتابع": 11907, "▁نعرفه": 11908, "▁الجامعات": 11909, "ُّ": 11910, "▁لأب": 11911, "▁بديك": 11912, "▁البصر": 11913, "▁تعديل": 11914, "▁الفلسطينيين": 11915, "خلك": 11916, "ظري": 11917, "▁غرض": 11918, "▁تسلي": 11919, "▁علاء": 11920, "▁think": 11921, "▁الإنتاج": 11922, "جيع": 11923, "ياج": 11924, "النا": 11925, "بيعي": 11926, "صدفة": 11927, "▁نبت": 11928, "▁نقاش": 11929, "▁يرون": 11930, "▁قابلة": 11931, "▁وكلنا": 11932, "▁والآخرة": 11933, "▁أخو": 11934, "▁أعجب": 11935, "▁ساهم": 11936, "▁معالي": 11937, "ستخدمها": 11938, "رأي": 11939, "فتحة": 11940, "▁أحا": 11941, "▁قاس": 11942, "▁ممر": 11943, "▁احمر": 11944, "▁اطلب": 11945, "▁بإيه": 11946, "▁تفاهم": 11947, "og": 11948, "يع": 11949, "كتو": 11950, "لموا": 11951, "▁اسيا": 11952, "▁وبينك": 11953, "▁قانوني": 11954, "▁الامارات": 11955, "▁السد": 11956, "▁طوله": 11957, "▁فعال": 11958, "▁لقطة": 11959, "▁الصاب": 11960, "▁التخصص": 11961, "▁إجراءات": 11962, "▁السوداء": 11963, "▁بالفيديو": 11964, "خاء": 11965, "ماطم": 11966, "▁here": 11967, "▁أمشي": 11968, "▁عيشة": 11969, "▁الواق": 11970, "▁اهمية": 11971, "▁جوانب": 11972, "▁ووقتها": 11973, "ّا": 11974, "كدت": 11975, "فترض": 11976, "▁بمت": 11977, "▁شوق": 11978, "▁وَل": 11979, "▁2026": 11980, "▁البض": 11981, "▁بصدق": 11982, "▁والتن": 11983, "▁وتطلع": 11984, "▁المعرض": 11985, "▁ماشيين": 11986, "▁العادات": 11987, "اهي": 11988, "▁ألو": 11989, "▁خبز": 11990, "▁لتر": 11991, "▁يبر": 11992, "▁أبيه": 11993, "▁استن": 11994, "▁باطل": 11995, "▁الانتق": 11996, "▁لإيران": 11997, "ِنْ": 11998, "كيلة": 11999, "▁خوا": 12000, "باراة": 12001, "▁أشكر": 12002, "▁تقال": 12003, "▁قولا": 12004, "▁كسبت": 12005, "▁مبنى": 12006, "▁الدراما": 12007, "▁المنافس": 12008, "▁يظل": 12009, "▁يلحق": 12010, "▁الأبد": 12011, "▁الزبدة": 12012, "▁الجيران": 12013, "20": 12014, "ap": 12015, "همش": 12016, "ماته": 12017, "▁عاقل": 12018, "▁لمين": 12019, "▁مجرم": 12020, "▁وملا": 12021, "▁أركان": 12022, "▁ينتقل": 12023, "▁النفوس": 12024, "▁وغيرهم": 12025, "قضي": 12026, "▁وراك": 12027, "▁السكة": 12028, "▁ديفيد": 12029, "▁طيارة": 12030, "▁الاخرين": 12031, "▁المسكين": 12032, "▁الاعتماد": 12033, "▁الحكومية": 12034, "▁وته": 12035, "▁دفعت": 12036, "▁عقول": 12037, "▁قدرش": 12038, "▁ندور": 12039, "▁يحدد": 12040, "▁العزة": 12041, "▁جاءوا": 12042, "▁لواحد": 12043, "▁نوعين": 12044, "▁والموا": 12045, "▁المركزي": 12046, "ساً": 12047, "▁كعب": 12048, "▁الإج": 12049, "▁اللح": 12050, "▁تردد": 12051, "▁جنات": 12052, "▁عبدي": 12053, "▁محفو": 12054, "▁السهل": 12055, "▁الكيس": 12056, "▁صحابي": 12057, "▁الصالة": 12058, "▁الصعيد": 12059, "▁السوشال": 12060, "▁زد": 12061, "حيين": 12062, "▁بون": 12063, "▁تهي": 12064, "▁حمي": 12065, "▁سلك": 12066, "▁مخد": 12067, "▁ونح": 12068, "▁توزيع": 12069, "▁والعم": 12070, "▁وشايف": 12071, "▁الكافر": 12072, "▁ديالهم": 12073, "▁والآخر": 12074, "▁الأبواب": 12075, "▁الهجمات": 12076, "ائز": 12077, "جاجة": 12078, "رافة": 12079, "▁اوت": 12080, "▁استق": 12081, "▁تسقط": 12082, "▁سائل": 12083, "▁وكسر": 12084, "▁ياها": 12085, "▁جابوا": 12086, "▁فاروق": 12087, "▁ويعلم": 12088, "▁ديالها": 12089, "▁الارتفاع": 12090, "ريكم": 12091, "وفرة": 12092, "يتهم": 12093, "▁وعرض": 12094, "▁العلة": 12095, "▁هتيجي": 12096, "▁التاجر": 12097, "▁الثوري": 12098, "▁اسبانيا": 12099, "▁المواضيع": 12100, "▁کن": 12101, "▁And": 12102, "▁مدر": 12103, "▁when": 12104, "▁غلطان": 12105, "▁والاب": 12106, "▁السيئة": 12107, "▁حواليك": 12108, "غله": 12109, "نونة": 12110, "▁dis": 12111, "▁تشك": 12112, "▁سيار": 12113, "▁كائن": 12114, "▁رائحة": 12115, "▁هولندا": 12116, "▁إسبانيا": 12117, "▁التخطيط": 12118, "▁تكل": 12119, "▁أشبه": 12120, "▁تكذب": 12121, "▁حليب": 12122, "▁روحه": 12123, "▁وجاب": 12124, "▁وحصل": 12125, "▁زوجتك": 12126, "▁طائرة": 12127, "▁اشتراك": 12128, "طيح": 12129, "وعد": 12130, "▁قض": 12131, "▁بعدي": 12132, "▁جنود": 12133, "▁للتح": 12134, "▁جنبها": 12135, "▁والتس": 12136, "▁العنصر": 12137, "▁والعشرين": 12138, "مى": 12139, "▁صلح": 12140, "▁وسه": 12141, "▁بارت": 12142, "▁يوقع": 12143, "▁واكتر": 12144, "▁الايراني": 12145, "عجب": 12146, "غات": 12147, "▁up": 12148, "قيام": 12149, "▁عاف": 12150, "▁يفر": 12151, "▁افعل": 12152, "▁تبغى": 12153, "▁تبلغ": 12154, "▁شعار": 12155, "▁صدره": 12156, "▁صدفة": 12157, "▁هديك": 12158, "▁الفتن": 12159, "▁يتابع": 12160, "▁الحمار": 12161, "لما": 12162, "جزات": 12163, "▁هنس": 12164, "▁بفتح": 12165, "▁تدعي": 12166, "▁جنبك": 12167, "▁تأمين": 12168, "▁مبالغ": 12169, "▁وعرفت": 12170, "▁التجار": 12171, "▁الزبير": 12172, "▁الفوضى": 12173, "▁وعلشان": 12174, "▁بالبداية": 12175, "▁تيت": 12176, "▁أجمع": 12177, "▁أسعد": 12178, "▁بلال": 12179, "▁صدام": 12180, "▁عقود": 12181, "▁مذهب": 12182, "▁توافق": 12183, "▁جمهورية": 12184, "▁الاساسية": 12185, "سكي": 12186, "نتقل": 12187, "▁بصر": 12188, "▁": 12189, "ا": 12190, "ل": 12191, "ي": 12192, "ن": 12193, "م": 12194, "و": 12195, "ت": 12196, "ب": 12197, "ر": 12198, "ه": 12199, "ع": 12200, "د": 12201, "ك": 12202, "ف": 12203, "ة": 12204, "س": 12205, "ق": 12206, "ح": 12207, "أ": 12208, "ش": 12209, "ج": 12210, "ص": 12211, "خ": 12212, "ط": 12213, "ى": 12214, "ز": 12215, "ذ": 12216, "ض": 12217, "إ": 12218, "ث": 12219, ".": 12220, "غ": 12221, "ء": 12222, "ئ": 12223, "ظ": 12224, "e": 12225, "آ": 12226, "؟": 12227, "t": 12228, "a": 12229, "o": 12230, "ؤ": 12231, "i": 12232, "n": 12233, "ً": 12234, "s": 12235, "r": 12236, "0": 12237, "l": 12238, "h": 12239, "?": 12240, "ی": 12241, "d": 12242, "1": 12243, "،": 12244, "c": 12245, "u": 12246, "2": 12247, "m": 12248, "َ": 12249, "p": 12250, "g": 12251, "y": 12252, "f": 12253, "w": 12254, "5": 12255, "3": 12256, "b": 12257, "4": 12258, "ک": 12259, "v": 12260, "8": 12261, "6": 12262, "9": 12263, "k": 12264, "ّ": 12265, "ِ": 12266, "7": 12267, "ْ": 12268, "ُ": 12269, "ـ": 12270, "I": 12271, "!": 12272, "A": 12273, ",": 12274, "-": 12275, "%": 12276, "گ": 12277, "T": 12278, "S": 12279, "'": 12280, "C": 12281, "x": 12282, "P": 12283, "D": 12284, "B": 12285, "چ": 12286, "M": 12287}, "merges": [["▁", "ا"], ["▁ا", "ل"], ["▁", "ال"], ["▁", "م"], ["▁", "و"], ["▁", "ب"], ["▁", "ل"], ["▁", "ف"], ["▁", "ع"], ["▁", "ي"], ["▁", "أ"], ["ا", "ل"], ["ن", "ا"], ["▁", "ت"], ["▁", "ك"], ["▁", "ه"], ["ا", "ن"], ["▁ف", "ي"], ["▁", "في"], ["ل", "ي"], ["ه", "ا"], ["ل", "ا"], ["ي", "ن"], ["▁م", "ن"], ["▁", "من"], ["▁ا", "لم"], ["▁ال", "م"], ["▁", "الم"], ["▁", "ح"], ["ي", "ة"], ["▁", "د"], ["▁", "ن"], ["و", "ا"], ["م", "ا"], ["▁", "ق"], ["ر", "ا"], ["و", "ل"], ["ل", "ى"], ["▁م", "ا"], ["▁", "ما"], ["▁", "س"], ["▁", "إ"], ["ن", "ي"], ["▁", "ش"], ["ي", "ر"], ["ل", "ه"], ["▁", "ج"], ["ر", "ي"], ["ا", "ت"], ["و", "ن"], ["ا", "ر"], ["▁ا", "ن"], ["▁", "ان"], ["د", "ي"], ["▁و", "ال"], ["▁وا", "ل"], ["▁", "وال"], ["▁ع", "لى"], ["▁عل", "ى"], ["▁", "على"], ["ذ", "ا"], ["▁أ", "ن"], ["▁", "أن"], ["ه", "م"], ["▁ال", "لي"], ["▁الل", "ي"], ["س", "ت"], ["▁", "ر"], ["▁", "خ"], ["▁ي", "ع"], ["▁", "يع"], ["▁ع", "ن"], ["▁", "عن"], ["▁ل", "ا"], ["▁", "لا"], ["▁م", "ع"], ["▁", "مع"], ["ب", "ي"], ["▁", "ط"], ["ل", "م"], ["ا", "م"], ["▁ال", "أ"], ["▁", "ص"], ["ر", "ة"], ["▁ب", "ي"], ["▁", "بي"], ["▁ا", "لله"], ["▁ال", "له"], ["▁الل", "ه"], ["▁", "الله"], ["▁ا", "لت"], ["▁ال", "ت"], ["▁", "الت"], ["ا", "ب"], ["▁ب", "ال"], ["▁با", "ل"], ["▁ا", "لع"], ["▁ال", "ع"], ["▁", "الع"], ["▁ي", "عني"], ["▁يع", "ني"], ["ك", "ن"], ["▁ا", "لح"], ["▁ال", "ح"], ["▁", "الح"], ["ا", "ي"], ["ع", "د"], ["▁ب", "ت"], ["▁", "بت"], ["▁ك", "ان"], ["▁كا", "ن"], ["▁", "كان"], ["د", "ا"], ["▁ا", "لس"], ["▁ال", "س"], ["▁ي", "ا"], ["▁", "يا"], ["و", "ر"], ["د", "ة"], ["د", "ه"], ["م", "ل"], ["ق", "ول"], ["ي", "ه"], ["ي", "ا"], ["▁ه", "و"], ["▁", "هو"], ["▁و", "ا"], ["▁", "وا"], ["ر", "ب"], ["و", "م"], ["▁ع", "لي"], ["▁عل", "ي"], ["▁م", "ش"], ["▁", "مش"], ["ا", "ج"], ["ك", "م"], ["ر", "ف"], ["▁د", "ه"], ["▁", "ده"], ["▁ال", "ش"], ["ل", "ة"], ["▁ك", "ل"], ["▁", "كل"], ["▁ه", "ذا"], ["▁هذ", "ا"], ["ا", "ع"], ["▁ا", "لف"], ["▁ال", "ف"], ["▁", "الف"], ["ق", "ى"], ["▁ب", "س"], ["▁", "بس"], ["▁ه", "ي"], ["▁", "هي"], ["ن", "ت"], ["▁ا", "لق"], ["▁ال", "ق"], ["▁", "الق"], ["ا", "ء"], ["ل", "و"], ["▁ا", "لج"], ["▁ال", "ج"], ["▁", "الج"], ["ق", "ة"], ["ح", "د"], ["▁", "ز"], ["▁ا", "لن"], ["▁ال", "ن"], ["▁ا", "نا"], ["▁ان", "ا"], ["▁", "انا"], ["و", "ف"], ["▁ا", "لك"], ["▁ال", "ك"], ["▁", "الك"], ["ت", "ي"], ["▁د", "ي"], ["▁", "دي"], ["▁ا", "لب"], ["▁ال", "ب"], ["▁", "الب"], ["▁ا", "لا"], ["▁ال", "ا"], ["▁", "الا"], ["س", "م"], ["ل", "ك"], ["ق", "ي"], ["ي", "ب"], ["و", "ي"], ["ر", "ك"], ["ب", "ع"], ["كو", "ن"], ["ك", "ون"], ["▁أ", "و"], ["▁ا", "نت"], ["▁ان", "ت"], ["▁", "انت"], ["ل", "ت"], ["▁ل", "ي"], ["▁", "لي"], ["▁", "غ"], ["ذ", "ه"], ["ق", "د"], ["▁و", "ب"], ["▁", "وب"], ["ي", "د"], ["ا", "د"], ["ر", "و"], ["لا", "م"], ["ل", "ام"], ["م", "ن"], ["▁و", "ت"], ["▁", "وت"], ["ف", "س"], ["▁أ", "نا"], ["▁أن", "ا"], ["ح", "ت"], ["ر", "ج"], ["ع", "ة"], ["▁ل", "ل"], ["▁", "لل"], ["▁ال", "ص"], ["و", "د"], ["▁ت", "ع"], ["▁ا", "لد"], ["▁ال", "د"], ["▁", "الد"], ["ك", "ل"], ["▁و", "لا"], ["▁ول", "ا"], ["▁", "ولا"], ["ب", "ا"], ["م", "ي"], ["ك", "ت"], ["أ", "ن"], ["ق", "ت"], ["ك", "ر"], ["ا", "ئ"], ["ص", "ل"], ["▁ك", "ده"], ["▁كد", "ه"], ["▁و", "ه"], ["▁", "وه"], ["ان", "ي"], ["ا", "ني"], ["م", "ة"], ["▁ه", "نا"], ["▁هن", "ا"], ["م", "ر"], ["ف", "ي"], ["ب", "ة"], ["نا", "س"], ["ن", "اس"], ["و", "ج"], ["▁ع", "ند"], ["▁عن", "د"], ["▁إ", "ن"], ["▁ق", "ال"], ["▁قا", "ل"], ["▁", "قال"], ["ب", "ر"], ["▁ا", "يه"], ["▁اي", "ه"], ["▁إ", "لى"], ["▁إل", "ى"], ["▁ال", "خ"], ["▁ال", "إ"], ["▁ه", "ذه"], ["▁هذ", "ه"], ["س", "ي"], ["ا", "ف"], ["ت", "ك"], ["ر", "ض"], ["ت", "ه"], ["▁ب", "عد"], ["▁بع", "د"], ["▁", "بعد"], ["▁ع", "ش"], ["▁", "عش"], ["▁ف", "يه"], ["▁في", "ه"], ["▁", "فيه"], ["اج", "ة"], ["ا", "جة"], ["مك", "ن"], ["م", "كن"], ["▁", "ث"], ["و", "ع"], ["▁ل", "ه"], ["▁", "له"], ["▁و", "أ"], ["▁", "وأ"], ["ل", "ع"], ["ح", "ة"], ["▁و", "ي"], ["▁", "وي"], ["حن", "ا"], ["ح", "نا"], ["▁ا", "و"], ["▁ل", "و"], ["▁", "لو"], ["▁و", "م"], ["▁", "وم"], ["▁ل", "ك"], ["▁", "لك"], ["▁ب", "ع"], ["▁", "بع"], ["ي", "ف"], ["▁ا", "لو"], ["▁ال", "و"], ["س", "ا"], ["▁و", "ع"], ["▁", "وع"], ["ر", "ح"], ["ب", "ل"], ["و", "ق"], ["خ", "ل"], ["▁ع", "ليه"], ["▁علي", "ه"], ["▁عل", "يه"], ["▁و", "ل"], ["▁", "ول"], ["▁ج", "دا"], ["▁جد", "ا"], ["بق", "ى"], ["ب", "قى"], ["▁ش", "ي"], ["▁", "شي"], ["ف", "ت"], ["▁ن", "فس"], ["▁نف", "س"], ["▁", "نفس"], ["ل", "ب"], ["▁أ", "ي"], ["▁", "أي"], ["خ", "ر"], ["ف", "ع"], ["▁م", "ت"], ["▁", "مت"], ["ما", "ن"], ["م", "ان"], ["▁ي", "ت"], ["▁", "يت"], ["▁ح", "اجة"], ["▁حا", "جة"], ["▁حاج", "ة"], ["ب", "د"], ["م", "د"], ["▁ا", "ه"], ["▁", "اه"], ["▁ا", "ي"], ["▁", "اي"], ["▁ل", "كن"], ["▁لك", "ن"], ["▁ا", "لط"], ["▁ال", "ط"], ["▁ق", "د"], ["▁", "قد"], ["ي", "ل"], ["▁ب", "ن"], ["و", "ت"], ["را", "ت"], ["ر", "ات"], ["ن", "ة"], ["▁ال", "ذ"], ["▁ل", "ما"], ["▁لم", "ا"], ["▁", "لما"], ["كا", "ن"], ["ك", "ان"], ["▁", "ذ"], ["▁ب", "قى"], ["▁بق", "ى"], ["▁", "بقى"], ["▁ح", "ت"], ["▁", "حت"], ["م", "ع"], ["خ", "د"], ["ا", "ه"], ["ك", "ي"], ["ص", "ر"], ["ير", "ة"], ["ي", "رة"], ["▁م", "ح"], ["▁", "مح"], ["بع", "ا"], ["ب", "عا"], ["ال", "ي"], ["ا", "لي"], ["▁ر", "ا"], ["▁", "را"], ["▁ا", "ست"], ["▁اس", "ت"], ["▁ل", "م"], ["▁", "لم"], ["▁و", "ق"], ["▁", "وق"], ["ب", "ت"], ["▁م", "ث"], ["▁", "مث"], ["ش", "ي"], ["▁ت", "ح"], ["▁", "تح"], ["ع", "م"], ["▁ك", "ت"], ["▁", "كت"], ["▁ب", "ين"], ["▁بي", "ن"], ["▁", "بين"], ["ج", "ل"], ["ط", "ة"], ["▁", "ض"], ["خ", "ت"], ["▁و", "س"], ["▁", "وس"], ["س", "ة"], ["ر", "ت"], ["ل", "ف"], ["و", "ض"], ["▁ف", "يها"], ["▁في", "ها"], ["▁فيه", "ا"], ["▁", "فيها"], ["▁ال", "ناس"], ["▁الن", "اس"], ["▁النا", "س"], ["ن", "س"], ["▁ع", "شان"], ["▁عش", "ان"], ["▁وا", "حد"], ["▁واح", "د"], ["▁", "واحد"], ["▁ل", "أن"], ["▁لأ", "ن"], ["ح", "ي"], ["▁", "آ"], ["▁حت", "ى"], ["▁", "حتى"], ["▁ط", "بعا"], ["▁طب", "عا"], ["▁طبع", "ا"], ["ج", "ي"], ["▁ب", "د"], ["▁", "بد"], ["▁ا", "ت"], ["▁", "ات"], ["▁ع", "م"], ["▁", "عم"], ["▁ك", "انت"], ["▁كان", "ت"], ["▁كا", "نت"], ["▁ر", "ب"], ["▁", "رب"], ["ع", "ل"], ["خ", "ص"], ["▁ز", "ي"], ["▁", "زي"], ["▁و", "ن"], ["▁", "ون"], ["ز", "م"], ["▁أ", "نه"], ["▁أن", "ه"], ["ح", "ب"], ["▁ت", "ت"], ["▁", "تت"], ["س", "ب"], ["ر", "ق"], ["▁ا", "حنا"], ["▁اح", "نا"], ["ر", "د"], ["ي", "م"], ["▁أ", "نت"], ["▁أن", "ت"], ["عم", "ل"], ["ع", "مل"], ["ار", "ة"], ["ا", "رة"], ["ش", "ت"], ["▁ت", "ق"], ["ز", "ي"], ["ر", "س"], ["و", "ب"], ["▁ي", "قول"], ["▁يق", "ول"], ["ع", "ت"], ["▁ع", "اي"], ["▁عا", "ي"], ["ط", "ي"], ["وي", "ة"], ["و", "ية"], ["و", "ة"], ["ل", "ق"], ["شو", "ف"], ["ش", "وف"], ["ص", "ة"], ["▁غ", "ير"], ["▁غي", "ر"], ["▁", "غير"], ["▁ا", "لي"], ["▁ال", "ي"], ["▁", "الي"], ["▁ي", "كون"], ["▁يك", "ون"], ["ع", "ب"], ["▁م", "مكن"], ["▁مم", "كن"], ["م", "ت"], ["ه", "ر"], ["ال", "م"], ["ا", "لم"], ["▁ب", "ه"], ["▁", "به"], ["▁ه", "ت"], ["▁ب", "ا"], ["▁", "با"], ["ما", "م"], ["م", "ام"], ["▁ن", "ا"], ["▁", "نا"], ["▁ك", "نت"], ["▁كن", "ت"], ["▁", "كنت"], ["▁بت", "اع"], ["▁بتا", "ع"], ["ع", "ي"], ["▁ط", "يب"], ["▁طي", "ب"], ["▁بع", "ض"], ["▁", "بعض"], ["▁ا", "سم"], ["▁اس", "م"], ["▁م", "س"], ["▁", "مس"], ["▁ا", "ب"], ["▁", "اب"], ["▁و", "ج"], ["▁", "وج"], ["ف", "ا"], ["و", "ز"], ["▁ا", "نه"], ["▁ان", "ه"], ["▁", "انه"], ["ض", "ي"], ["▁ا", "لث"], ["▁ال", "ث"], ["▁", "الث"], ["ق", "ل"], ["▁ال", "تي"], ["▁الت", "ي"], ["و", "س"], ["▁و", "إ"], ["▁ال", "ذي"], ["▁الذ", "ي"], ["ب", "ح"], ["▁ال", "آ"], ["ان", "ية"], ["اني", "ة"], ["ا", "نية"], ["▁أ", "خ"], ["▁إ", "ذا"], ["▁إذ", "ا"], ["▁ن", "ح"], ["▁ع", "ايز"], ["▁عاي", "ز"], ["▁عا", "يز"], ["لي", "ة"], ["ل", "ية"], ["▁ه", "ل"], ["▁", "هل"], ["ش", "ر"], ["ال", "ة"], ["ا", "لة"], ["▁ي", "وم"], ["▁يو", "م"], ["ني", "ن"], ["ن", "ين"], ["▁و", "ح"], ["▁", "وح"], ["▁أ", "ك"], ["م", "س"], ["ق", "ا"], ["▁م", "ج"], ["▁", "مج"], ["▁ق", "بل"], ["▁قب", "ل"], ["▁", "قبل"], ["ث", "ر"], ["▁ح", "د"], ["▁", "حد"], ["▁س", "ي"], ["▁", "سي"], ["ور", "ة"], ["و", "رة"], ["لا", "ت"], ["ل", "ات"], ["ف", "ة"], ["ول", "ة"], ["و", "لة"], ["▁شي", "ء"], ["▁", "شيء"], ["ته", "ا"], ["ت", "ها"], ["▁ي", "ج"], ["ن", "د"], ["▁و", "الله"], ["▁وال", "له"], ["▁وا", "لله"], ["▁والل", "ه"], ["يا", "ت"], ["ي", "ات"], ["غ", "ل"], ["▁أ", "م"], ["▁ب", "ش"], ["ه", "د"], ["و", "ه"], ["عر", "ف"], ["ع", "رف"], ["▁ك", "ب"], ["▁", "كب"], ["ف", "ض"], ["ع", "ا"], ["▁و", "ك"], ["▁", "وك"], ["ف", "ر"], ["▁ال", "مس"], ["▁الم", "س"], ["▁ول", "كن"], ["▁ولك", "ن"], ["▁ف", "ا"], ["▁", "فا"], ["▁ا", "لر"], ["▁ال", "ر"], ["قد", "ر"], ["ق", "در"], ["▁ف", "ق"], ["▁", "فق"], ["ص", "د"], ["▁ا", "لغ"], ["▁ال", "غ"], ["▁", "الغ"], ["▁ي", "بقى"], ["▁يب", "قى"], ["▁", "يبقى"], ["▁أ", "ب"], ["▁م", "ست"], ["▁مس", "ت"], ["▁و", "ما"], ["▁وم", "ا"], ["▁", "وما"], ["ز", "ل"], ["▁ف", "ت"], ["▁", "فت"], ["▁أ", "ح"], ["▁ب", "ل"], ["▁", "بل"], ["غي", "ر"], ["غ", "ير"], ["ان", "ت"], ["ا", "نت"], ["نا", "ت"], ["ن", "ات"], ["كر", "ة"], ["ك", "رة"], ["▁ا", "لز"], ["▁ال", "ز"], ["▁ل", "أ"], ["▁ل", "ها"], ["▁له", "ا"], ["▁", "لها"], ["▁م", "ثلا"], ["▁مث", "لا"], ["▁مثل", "ا"], ["▁خ", "ل"], ["▁", "خل"], ["▁ي", "ح"], ["▁", "يح"], ["ام", "ل"], ["ا", "مل"], ["ض", "ا"], ["▁الي", "وم"], ["▁اليو", "م"], ["ئ", "ي"], ["▁ب", "ح"], ["▁", "بح"], ["ما", "ت"], ["م", "ات"], ["▁", "t"], ["▁ي", "ن"], ["▁", "ين"], ["ين", "ي"], ["ي", "ني"], ["▁ش", "اء"], ["▁شا", "ء"], ["▁", "شاء"], ["وض", "وع"], ["▁ذ", "لك"], ["▁", "ذلك"], ["ين", "ة"], ["ي", "نة"], ["▁م", "د"], ["▁", "مد"], ["ول", "ي"], ["و", "لي"], ["▁و", "في"], ["▁وف", "ي"], ["▁", "وفي"], ["▁ال", "بي"], ["▁الب", "ي"], ["ز", "ة"], ["▁ك", "يف"], ["▁كي", "ف"], ["ري", "ق"], ["ر", "يق"], ["دي", "د"], ["د", "يد"], ["طل", "ع"], ["ط", "لع"], ["▁م", "وج"], ["▁مو", "ج"], ["ظ", "ر"], ["ج", "ا"], ["ك", "ا"], ["ك", "س"], ["حد", "ة"], ["ح", "دة"], ["▁س", "ت"], ["▁", "ست"], ["▁ال", "مت"], ["▁الم", "ت"], ["ب", "ه"], ["▁لا", "زم"], ["▁ل", "ان"], ["▁لا", "ن"], ["▁ق", "لت"], ["▁قل", "ت"], ["▁", "قلت"], ["وا", "ت"], ["و", "ات"], ["ب", "ط"], ["را", "ء"], ["ر", "اء"], ["▁ع", "مل"], ["▁عم", "ل"], ["▁", "عمل"], ["▁", "1"], ["▁ت", "ن"], ["▁ع", "ار"], ["▁عا", "ر"], ["▁", "عار"], ["ط", "ر"], ["▁ه", "م"], ["▁", "هم"], ["ض", "ر"], ["لم", "ة"], ["ل", "مة"], ["ذل", "ك"], ["ذ", "لك"], ["▁ت", "ج"], ["▁ع", "ندي"], ["▁عن", "دي"], ["▁عند", "ي"], ["رو", "ح"], ["ر", "وح"], ["لا", "ث"], ["ل", "اث"], ["▁ي", "د"], ["▁", "يد"], ["▁أ", "س"], ["▁", "أس"], ["▁ل", "يه"], ["▁لي", "ه"], ["▁", "ليه"], ["▁و", "هو"], ["▁وه", "و"], ["▁ع", "ا"], ["▁", "عا"], ["▁ت", "كون"], ["▁تك", "ون"], ["م", "و"], ["ن", "ى"], ["▁ب", "ص"], ["▁", "بص"], ["▁ط", "ب"], ["▁", "طب"], ["▁ه", "ناك"], ["▁هنا", "ك"], ["▁هن", "اك"], ["▁و", "ص"], ["▁", "وص"], ["▁ي", "ق"], ["▁", "يق"], ["▁ال", "مش"], ["▁الم", "ش"], ["و", "ى"], ["▁إ", "لا"], ["▁إل", "ا"], ["▁م", "رة"], ["▁مر", "ة"], ["▁", "مرة"], ["▁أ", "ص"], ["ل", "س"], ["▁ع", "ليها"], ["▁علي", "ها"], ["▁عليه", "ا"], ["▁عل", "يها"], ["▁و", "من"], ["▁وم", "ن"], ["▁ر", "ح"], ["▁", "رح"], ["▁ا", "خ"], ["ري", "د"], ["ر", "يد"], ["▁ث", "م"], ["▁", "ثم"], ["▁أ", "ع"], ["▁ت", "س"], ["ح", "ا"], ["▁كت", "ير"], ["▁و", "ش"], ["▁", "وش"], ["س", "ن"], ["▁ف", "ه"], ["▁", "فه"], ["لا", "ص"], ["ل", "اص"], ["▁ف", "ع"], ["▁", "فع"], ["ي", "ت"], ["▁ش", "و"], ["▁", "شو"], ["▁ي", "مكن"], ["▁يم", "كن"], ["ر", "ى"], ["▁م", "و"], ["▁", "مو"], ["ار", "ك"], ["ا", "رك"], ["▁إ", "يه"], ["▁إي", "ه"], ["اع", "ة"], ["ا", "عة"], ["▁ك", "مان"], ["▁كما", "ن"], ["▁كم", "ان"], ["ال", "ت"], ["ا", "لت"], ["ي", "ش"], ["▁ال", "من"], ["▁الم", "ن"], ["▁د", "ا"], ["▁", "دا"], ["▁الأ", "م"], ["سل", "ام"], ["س", "لام"], ["ئ", "ة"], ["▁ال", "مع"], ["▁الم", "ع"], ["ض", "ع"], ["▁ع", "د"], ["▁", "عد"], ["ر", "أ"], ["را", "م"], ["ر", "ام"], ["اب", "ة"], ["ا", "بة"], ["ود", "ة"], ["و", "دة"], ["بد", "أ"], ["ب", "دأ"], ["▁ت", "د"], ["ه", "ل"], ["ال", "ى"], ["ا", "لى"], ["فض", "ل"], ["ف", "ضل"], ["▁الع", "الم"], ["▁العال", "م"], ["▁العا", "لم"], ["▁ص", "لى"], ["▁صل", "ى"], ["▁و", "بعد"], ["▁وب", "عد"], ["▁وبع", "د"], ["▁ت", "ش"], ["▁", "تش"], ["▁ت", "خ"], ["▁ب", "يت"], ["▁بي", "ت"], ["▁", "بيت"], ["ح", "ظ"], ["▁و", "سلم"], ["▁وس", "لم"], ["▁ل", "لم"], ["▁لل", "م"], ["و", "ك"], ["▁", "2"], ["رك", "ة"], ["ر", "كة"], ["تك", "لم"], ["ت", "كلم"], ["▁أ", "ول"], ["▁أو", "ل"], ["▁م", "نه"], ["▁من", "ه"], ["ها", "ر"], ["ه", "ار"], ["▁", "a"], ["ار", "ي"], ["ا", "ري"], ["ر", "م"], ["▁ع", "ارف"], ["▁عار", "ف"], ["▁عا", "رف"], ["▁س", "نة"], ["▁سن", "ة"], ["ذ", "ن"], ["▁ا", "ح"], ["▁", "اح"], ["ع", "ر"], ["و", "ح"], ["▁ك", "له"], ["▁كل", "ه"], ["▁", "كله"], ["▁ال", "شي"], ["▁الش", "ي"], ["▁ن", "ق"], ["▁", "نق"], ["▁ال", "مد"], ["▁الم", "د"], ["ؤ", "ال"], ["ج", "د"], ["وا", "ن"], ["و", "ان"], ["▁ه", "ن"], ["▁", "هن"], ["▁و", "قت"], ["▁وق", "ت"], ["▁", "وقت"], ["م", "ه"], ["▁ي", "س"], ["▁", "يس"], ["▁ك", "ث"], ["▁ن", "ت"], ["▁", "نت"], ["ور", "ي"], ["و", "ري"], ["▁ا", "له"], ["▁ال", "ه"], ["▁", "اله"], ["▁ا", "س"], ["▁", "اس"], ["دي", "و"], ["▁ا", "ز"], ["▁", "از"], ["▁ك", "ما"], ["▁كم", "ا"], ["قي", "قة"], ["قيق", "ة"], ["و", "ش"], ["▁و", "الم"], ["▁وال", "م"], ["▁وا", "لم"], ["i", "n"], ["اع", "د"], ["ا", "عد"], ["▁ي", "ست"], ["▁يس", "ت"], ["▁ا", "لل"], ["▁ال", "ل"], ["▁ر", "أ"], ["▁", "رأ"], ["▁ل", "كم"], ["▁لك", "م"], ["▁", "لكم"], ["▁م", "عا"], ["▁مع", "ا"], ["▁ج", "مي"], ["▁جم", "ي"], ["▁خ", "لاص"], ["▁خل", "اص"], ["▁خلا", "ص"], ["▁م", "ص"], ["▁ه", "ا"], ["▁", "ها"], ["▁ن", "حن"], ["▁نح", "ن"], ["▁ال", "آن"], ["▁الآ", "ن"], ["▁ب", "رض"], ["▁بر", "ض"], ["▁و", "كان"], ["▁وك", "ان"], ["▁خ", "ط"], ["▁", "خط"], ["▁ع", "نده"], ["▁عن", "ده"], ["▁عند", "ه"], ["h", "e"], ["▁ب", "أ"], ["▁ت", "قول"], ["▁تق", "ول"], ["▁ت", "ص"], ["▁و", "بي"], ["▁وب", "ي"], ["▁", "وبي"], ["▁ل", "ن"], ["▁", "لن"], ["▁و", "الت"], ["▁وال", "ت"], ["▁وا", "لت"], ["▁ب", "ط"], ["▁", "بط"], ["▁ال", "نبي"], ["▁الن", "بي"], ["▁النب", "ي"], ["رب", "ية"], ["ربي", "ة"], ["ر", "بية"], ["▁ال", "وقت"], ["▁الو", "قت"], ["▁الوق", "ت"], ["▁ال", "في"], ["▁الف", "ي"], ["ما", "ل"], ["م", "ال"], ["▁ل", "ت"], ["▁", "لت"], ["ف", "ق"], ["▁ه", "اي"], ["▁ها", "ي"], ["▁", "هاي"], ["▁ف", "أ"], ["▁خ", "لي"], ["▁خل", "ي"], ["▁", "خلي"], ["▁ن", "عم"], ["▁نع", "م"], ["رج", "ع"], ["ر", "جع"], ["▁ق", "ل"], ["▁", "قل"], ["كت", "ب"], ["▁ح", "ا"], ["▁", "حا"], ["لو", "ق"], ["ل", "وق"], ["▁ال", "ان"], ["▁الا", "ن"], ["▁ر", "بنا"], ["▁رب", "نا"], ["▁", "ربنا"], ["▁وا", "حدة"], ["▁واحد", "ة"], ["▁واح", "دة"], ["▁ث", "لاث"], ["▁الأ", "ول"], ["▁الأو", "ل"], ["ون", "ي"], ["و", "ني"], ["▁ب", "شكل"], ["▁بش", "كل"], ["كل", "ة"], ["ك", "لة"], ["▁و", "خ"], ["▁", "وخ"], ["▁لأن", "ه"], ["▁لأ", "نه"], ["▁م", "حمد"], ["▁مح", "مد"], ["▁محم", "د"], ["▁م", "صر"], ["▁مص", "ر"], ["ف", "ل"], ["▁ت", "أ"], ["ي", "ك"], ["▁ت", "حت"], ["▁تح", "ت"], ["▁عن", "دك"], ["▁عند", "ك"], ["▁ال", "ض"], ["اج", "ات"], ["ا", "جات"], ["را", "ر"], ["ر", "ار"], ["▁", "ظ"], ["▁ت", "اني"], ["▁تا", "ني"], ["س", "ه"], ["▁م", "ق"], ["▁", "مق"], ["كت", "ر"], ["ك", "تر"], ["خ", "ذ"], ["ا", "ح"], ["ج", "ة"], ["▁ش", "خص"], ["▁ل", "له"], ["▁لل", "ه"], ["▁", "لله"], ["ني", "ا"], ["ن", "يا"], ["▁ش", "وية"], ["▁شو", "ية"], ["▁شوي", "ة"], ["▁إ", "لي"], ["▁إل", "ي"], ["▁ص", "ح"], ["▁", "صح"], ["لا", "ق"], ["ل", "اق"], ["▁ل", "هم"], ["▁له", "م"], ["▁", "لهم"], ["▁ف", "ر"], ["▁", "فر"], ["▁ف", "ال"], ["▁فا", "ل"], ["▁", "فال"], ["نا", "ء"], ["ن", "اء"], ["▁ك", "لها"], ["▁كل", "ها"], ["▁كله", "ا"], ["▁ب", "ر"], ["▁", "بر"], ["▁ل", "يس"], ["▁لي", "س"], ["▁", "ليس"], ["▁ن", "ص"], ["▁ب", "م"], ["يا", "ة"], ["ي", "اة"], ["ما", "ء"], ["م", "اء"], ["ري", "قة"], ["ريق", "ة"], ["▁الم", "ست"], ["▁المس", "ت"], ["▁أ", "ش"], ["ك", "ة"], ["▁ح", "س"], ["▁", "حس"], ["لا", "ة"], ["ل", "اة"], ["▁م", "هم"], ["▁مه", "م"], ["▁ر", "س"], ["▁", "رس"], ["▁ت", "ف"], ["▁برض", "و"], ["▁ع", "ليك"], ["▁علي", "ك"], ["▁عل", "يك"], ["▁ع", "ل"], ["▁", "عل"], ["▁ي", "خ"], ["▁ا", "لوا"], ["▁ال", "وا"], ["▁الو", "ا"], ["▁", "الوا"], ["▁ا", "م"], ["▁", "ام"], ["شا", "ن"], ["ش", "ان"], ["▁م", "ب"], ["▁أي", "ضا"], ["ج", "ع"], ["ني", "ة"], ["ن", "ية"], ["▁ش", "وف"], ["▁شو", "ف"], ["▁", "شوف"], ["ج", "ه"], ["ط", "ع"], ["▁ا", "لنا"], ["▁ال", "نا"], ["▁الن", "ا"], ["▁", "النا"], ["▁م", "ثل"], ["▁مث", "ل"], ["▁", "مثل"], ["لوق", "تي"], ["▁ت", "مام"], ["▁تم", "ام"], ["▁تما", "م"], ["▁", "تمام"], ["▁ف", "إ"], ["▁ح", "ي"], ["▁", "حي"], ["▁و", "هي"], ["▁وه", "ي"], ["▁ح", "ق"], ["▁", "حق"], ["ج", "ر"], ["▁عن",
[...]
